<unk>	0
<s>	0
</s>	0
><	-0
on	-1
="	-2
00	-3
in	-4
le	-5
ont	-6
pa	-7
▁s	-8
al	-9
font	-10
ig	-11
er	-12
ty	-13
pt	-14
tyle	-15
▁style	-16
td	-17
to	-18
></	-19
or	-20
ol	-21
ti	-22
ing	-23
spa	-24
dd	-25
span	-26
ht	-27
:1	-28
an	-29
px	-30
ight	-31
padd	-32
padding	-33
ign	-34
align	-35
si	-36
col	-37
te	-38
"><	-39
di	-40
ot	-41
en	-42
ze	-43
0000	-44
xt	-45
size	-46
tom	-47
ottom	-48
</	-49
:2	-50
bottom	-51
am	-52
il	-53
">	-54
ff	-55
eight	-56
id	-57
00;	-58
ily	-59
fam	-60
family	-61
div	-62
color	-63
text	-64
eri	-65
ver	-66
ac	-67
:#	-68
br	-69
:0	-70
es	-71
ar	-72
tic	-73
;"><	-74
li	-75
tical	-76
vertical	-77
ro	-78
th	-79
un	-80
:10	-81
xbr	-82
ent	-83
top	-84
ans	-85
▁1	-86
tion	-87
0;	-88
ft	-89
',	-90
000000;	-91
ine	-92
20	-93
us	-94
left	-95
im	-96
right	-97
▁col	-98
line	-99
und	-100
▁colspan	-101
xbrli	-102
ec	-103
height	-104
weight	-105
om	-106
:'	-107
ack	-108
erif	-109
gro	-110
serif	-111
back	-112
ground	-113
background	-114
ce	-115
it	-116
ef	-117
&#	-118
;">	-119
▁c	-120
ap	-121
em	-122
tr	-123
sans	-124
non	-125
3"	-126
:#000000;	-127
mar	-128
16	-129
="3"	-130
ord	-131
:4	-132
gin	-133
margin	-134
▁o	-135
▁N	-136
▁R	-137
re	-138
:400;	-139
wid	-140
order	-141
width	-142
ew	-143
border	-144
&#16	-145
&#160;	-146
ix	-147
Tim	-148
▁New	-149
Times	-150
:100	-151
oman	-152
▁Roman	-153
▁#	-154
ber	-155
:100%	-156
hi	-157
se	-158
ial	-159
▁th	-160
▁2	-161
ga	-162
"></	-163
rac	-164
▁f	-165
▁d	-166
olid	-167
ffff	-168
ember	-169
orm	-170
▁<	-171
gaap	-172
Ref	-173
ment	-174
ate	-175
"/	-176
inh	-177
erit	-178
inherit	-179
Member	-180
&#160;</	-181
Frac	-182
nonFrac	-183
ur	-184
▁n	-185
nonFraction	-186
▁p	-187
▁in	-188
and	-189
▁solid	-190
ext	-191
eff	-192
is	-193
"/><	-194
▁a	-195
:0.	-196
▁0	-197
cce	-198
cceeff	-199
ontext	-200
ex	-201
6"	-202
▁the	-203
Ar	-204
:9	-205
▁id	-206
ation	-207
▁and	-208
ve	-209
Arial	-210
▁of	-211
at	-212
lo	-213
imal	-214
ecimal	-215
:8	-216
:100%">	-217
ab	-218
▁b	-219
▁0;	-220
▁#000000;	-221
exp	-222
NT	-223
ed	-224
▁sc	-225
enti	-226
2"	-227
%;	-228
lic	-229
12	-230
ale	-231
In	-232
Yz	-233
','	-234
itMember	-235
xbrl	-236
▁S	-237
st	-238
▁to	-239
xbrldi	-240
202	-241
explic	-242
▁w	-243
um	-244
explicitMember	-245
ame	-246
="2"	-247
▁un	-248
:120	-249
▁name	-250
="-	-251
ffffff	-252
▁context	-253
▁contextRef	-254
:7	-255
YW	-256
sp	-257
31	-258
la	-259
ormal	-260
01	-261
▁unit	-262
TD	-263
▁m	-264
OT	-265
▁unitRef	-266
Nj	-267
▁decimal	-268
ZT	-269
;">&#160;</	-270
▁decimals	-271
▁scale	-272
▁pro	-273
ts	-274
Ax	-275
od	-276
Yj	-277
ND	-278
90	-279
ic	-280
qu	-281
low	-282
Axis	-283
▁r	-284
201	-285
OD	-286
YT	-287
Mz	-288
&#8	-289
Zj	-290
dden	-291
hidden	-292
MT	-293
none	-294
gment	-295
▁</	-296
dent	-297
.0	-298
able	-299
ue	-300
ant	-301
="6"	-302
ir	-303
ZG	-304
MD	-305
▁C	-306
ov	-307
="-6"	-308
▁di	-309
sion	-310
over	-311
usd	-312
indent	-313
;</	-314
hite	-315
Mj	-316
▁sans	-317
.5	-318
white	-319
ww	-320
ud	-321
▁re	-322
Jh	-323
space	-324
as	-325
75	-326
eriod	-327
Nz	-328
normal	-329
%">	-330
ity	-331
rap	-332
jd	-333
ier	-334
cent	-335
et	-336
flow	-337
overflow	-338
wrap	-339
▁h	-340
ali	-341
ension	-342
:100%"><	-343
ZD	-344
ch	-345
entif	-346
▁v	-347
-4	-348
;;	-349
ss	-350
FF	-351
segment	-352
entity	-353
▁form	-354
period	-355
identif	-356
context	-357
identifier	-358
:120%">	-359
ixt	-360
▁format	-361
el	-362
YWJ	-363
lay	-364
ter	-365
:700;	-366
-1	-367
25	-368
center	-369
&#82	-370
0,	-371
';	-372
▁dim	-373
YWJs	-374
splay	-375
are	-376
▁dimension	-377
display	-378
Nl	-379
FO	-380
▁our	-381
▁A	-382
ase	-383
num	-384
OW	-385
FONT	-386
ated	-387
ul	-388
Nm	-389
Ym	-390
Date	-391
bri	-392
Cali	-393
Pl	-394
Calibri	-395
LT	-396
Zm	-397
ly	-398
26	-399
alue	-400
ea	-401
tive	-402
ge	-403
▁#00	-404
jus	-405
▁for	-406
Oj	-407
ted	-408
sec	-409
IG	-410
:3	-411
old	-412
%"></	-413
ties	-414
nb	-415
NG	-416
style	-417
ons	-418
end	-419
:120%;	-420
OG	-421
ub	-422
Ex	-423
▁as	-424
arial	-425
ement	-426
MG	-427
▁inc	-428
:0.0	-429
ax	-430
air	-431
%"/><	-432
:11	-433
form	-434
est	-435
30	-436
>&#160;</	-437
per	-438
Ev	-439
pre	-440
fy	-441
IGN	-442
nbsp	-443
LIGN	-444
Plan	-445
17	-446
:6	-447
ay	-448
ess	-449
:0.5	-450
33	-451
▁or	-452
tify	-453
10	-454
MW	-455
justify	-456
ok	-457
eb	-458
sition	-459
77	-460
Value	-461
)</	-462
▁on	-463
vi	-464
tp	-465
//	-466
uc	-467
http	-468
://	-469
NW	-470
Vy	-471
:0.1	-472
ments	-473
ZW	-474
ome	-475
ook	-476
NlYz	-477
Rv	-478
bD	-479
Mud	-480
jEv	-481
inst	-482
▁B	-483
RvY	-484
ovL	-485
VybD	-486
Mm	-487
jEvZG	-488
VybDovL	-489
MudjEvZG	-490
anc	-491
www	-492
cont	-493
▁com	-494
▁T	-495
$</	-496
no	-497
Inc	-498
Fair	-499
enef	-500
▁V	-501
.</	-502
ba	-503
po	-504
gov	-505
▁P	-506
ck	-507
table	-508
instant	-509
80	-510
FairValue	-511
bold	-512
Xz	-513
ZX	-514
ility	-515
Zz	-516
Zn	-517
JhZz	-518
oun	-519
ZnJhZz	-520
ari	-521
nd	-522
▁valign	-523
dl	-524
db	-525
ities	-526
CI	-527
ith	-528
min	-529
2019	-530
24	-531
tate	-532
he	-533
0,0,	-534
idd	-535
34	-536
:0.75	-537
:12	-538
▁e	-539
trans	-540
eak	-541
iddle	-542
ance	-543
ations	-544
As	-545
eme	-546
1231	-547
break	-548
lud	-549
enefit	-550
▁sch	-551
14	-552
tica	-553
tM	-554
nowrap	-555
vZnJhZz	-556
▁#000;	-557
elve	-558
2021	-559
29	-560
inanc	-561
oration	-562
18	-563
:5	-564
:1.0	-565
▁do	-566
CIK	-567
▁scheme	-568
ain	-569
▁VA	-570
▁ac	-571
ers	-572
elvetica	-573
Lo	-574
▁t	-575
▁Sans	-576
▁VALIGN	-577
bm	-578
under	-579
203	-580
▁are	-581
dot	-582
xLT	-583
position	-584
decimal	-585
Of	-586
ther	-587
ad	-588
art	-589
/></	-590
Jhbm	-591
To	-592
Jhbmdl	-593
YWJsZT	-594
YWJsZX	-595
middle	-596
rom	-597
▁F	-598
-12	-599
Com	-600
YWJsZXJhbmdl	-601
dec	-602
▁pa	-603
▁g	-604
▁is	-605
▁be	-606
por	-607
28	-608
01-	-609
&#8203	-610
Om	-611
qui	-612
2020	-613
ined	-614
15	-615
Def	-616
cc	-617
37	-618
:0;	-619
decoration	-620
▁(	-621
ure	-622
ri	-623
sets	-624
uble	-625
ut	-626
duc	-627
And	-628
By	-629
start	-630
▁normal	-631
▁with	-632
▁D	-633
ard	-634
transform	-635
JD	-636
str	-637
▁res	-638
NlYzo	-639
endDate	-640
vari	-641
startDate	-642
variant	-643
ear	-644
Benefit	-645
47	-646
-9	-647
ZE	-648
Re	-649
21	-650
▁SI	-651
do	-652
▁SIZE	-653
5,	-654
tor	-655
pan	-656
illi	-657
39	-658
jOj	-659
rg	-660
▁cont	-661
▁double	-662
27	-663
pe	-664
fit	-665
rt	-666
word	-667
urr	-668
ased	-669
ebt	-670
▁co	-671
64	-672
▁M	-673
eve	-674
);	-675
"/></	-676
ash	-677
ital	-678
her	-679
ven	-680
▁by	-681
1231"	-682
▁an	-683
Other	-684
Income	-685
Tax	-686
31</	-687
Rh	-688
tock	-689
bility	-690
up	-691
▁book	-692
iness	-693
84	-694
35	-695
85	-696
usiness	-697
pen	-698
▁that	-699
helvetica	-700
-12-	-701
Rec	-702
content	-703
eric	-704
ating	-705
Ni	-706
Num	-707
ll	-708
>202	-709
19	-710
">0000	-711
underline	-712
3</	-713
Fi	-714
&#8212	-715
45	-716
inancial	-717
▁exp	-718
▁we	-719
36	-720
red	-721
Ri	-722
Defined	-723
og	-724
32	-725
2018	-726
&#8203;</	-727
rgba	-728
=2	-729
ore	-730
Se	-731
hare	-732
Qx	-733
86	-734
▁padding	-735
quot	-736
ecur	-737
:#0000	-738
49	-739
89	-740
▁#000000;"><	-741
vZnJhZzo	-742
Un	-743
illion	-744
ute	-745
ref	-746
tatement	-747
:100%">$</	-748
ang	-749
va	-750
11	-751
FFFF	-752
sibility	-753
de	-754
▁al	-755
="#	-756
-0	-757
0001	-758
nonNum	-759
-12-31</	-760
quity	-761
nonNumeric	-762
inu	-763
Debt	-764
stru	-765
luding	-766
Vh	-767
srt	-768
dotd	-769
ote	-770
numdotd	-771
tMS	-772
Yy	-773
%;"></	-774
visibility	-775
numdotdecimal	-776
bc	-777
My	-778
:0.1%"></	-779
ies	-780
%;">	-781
pany	-782
Rl	-783
Loss	-784
▁202	-785
44	-786
0"	-787
▁O	-788
▁Com	-789
▁le	-790
cy	-791
Fh	-792
:100%">&#160;</	-793
Zi	-794
xLTE	-795
;">&#8203;</	-796
▁rec	-797
99	-798
Zl	-799
sol	-800
▁W	-801
▁font	-802
▁ot	-803
har	-804
Statement	-805
Right	-806
if	-807
87	-808
solute	-809
255,	-810
▁from	-811
▁li	-812
ib	-813
absolute	-814
YWJsZTo	-815
Rj	-816
LE	-817
Qy	-818
▁href	-819
2</	-820
ect	-821
ize	-822
apse	-823
terest	-824
40	-825
Rk	-826
lapse	-827
ves	-828
.75	-829
vest	-830
46	-831
▁oper	-832
▁other	-833
Instru	-834
▁con	-835
collapse	-836
Nh	-837
YWJsZXJhbmdlOj	-838
Qw	-839
Vj	-840
:8.5	-841
italic	-842
tem	-843
ecurities	-844
ting	-845
Net	-846
:100%;	-847
tions	-848
sAxis	-849
Top	-850
:0.1%"/><	-851
(0,0,	-852
▁G	-853
(0,0,0,	-854
Pro	-855
▁produc	-856
Rm	-857
act	-858
▁ex	-859
DefinedBenefit	-860
88	-861
ei	-862
Vi	-863
▁ST	-864
▁us	-865
Segment	-866
age	-867
:100%">(	-868
22	-869
▁at	-870
US	-871
Qz	-872
ee	-873
▁im	-874
pti	-875
Assets	-876
Zh	-877
">1	-878
Uw	-879
▁$	-880
Equity	-881
Iw	-882
Iy	-883
▁y	-884
▁Pro	-885
▁-	-886
set	-887
95	-888
▁pr	-889
65	-890
-5	-891
▁sign	-892
Vm	-893
ract	-894
05	-895
▁L	-896
67	-897
▁In	-898
="0"	-899
38	-900
cal	-901
ning	-902
YLE	-903
Share	-904
.00	-905
▁STYLE	-906
ID	-907
ct	-908
17;	-909
▁The	-910
▁tax	-911
Ux	-912
69	-913
&#8217;	-914
68	-915
▁Book	-916
Mw	-917
▁I	-918
solid	-919
▁whi	-920
">&	-921
dbdb	-922
tain	-923
ange	-924
ustom	-925
ere	-926
tim	-927
Ji	-928
▁#0077	-929
vable	-930
▁E	-931
Jl	-932
ong	-933
Ew	-934
-8	-935
urrent	-936
dit	-937
ave	-938
onsolid	-939
OM	-940
evel	-941
&#160;&#160;	-942
ary	-943
Iz	-944
.9	-945
Ey	-946
Fm	-947
Zk	-948
eas	-949
;">$</	-950
▁'	-951
2626	-952
▁which	-953
>)</	-954
Ty	-955
Yx	-956
▁width	-957
:10.0	-958
Jk	-959
%"><	-960
Level	-961
Type	-962
Instrument	-963
▁may	-964
60	-965
Ez	-966
rement	-967
Bottom	-968
70	-969
lative	-970
Jm	-971
Fl	-972
OL	-973
▁have	-974
▁l	-975
2,	-976
ilities	-977
▁Company	-978
af	-979
TypeAxis	-980
Acc	-981
▁tr	-982
eivable	-983
&#8212;</	-984
▁ch	-985
Uz	-986
tirement	-987
6</	-988
ill	-989
▁not	-990
Cont	-991
Vk	-992
-2	-993
OR	-994
=2>	-995
1</	-996
▁border	-997
Aw	-998
4</	-999
coun	-1000
Mx	-1001
▁per	-1002
▁am	-1003
▁lo	-1004
isk	-1005
Stock	-1006
▁U	-1007
uld	-1008
jOm	-1009
NlYzp	-1010
ost	-1011
uring	-1012
Fk	-1013
Vl	-1014
ual	-1015
Li	-1016
▁cost	-1017
Ix	-1018
edg	-1019
▁ap	-1020
Nk	-1021
:7.5	-1022
Jj	-1023
inline	-1024
eriva	-1025
Non	-1026
97	-1027
1);	-1028
255,255,	-1029
:1.5	-1030
hen	-1031
sed	-1032
dddd	-1033
cd	-1034
mark	-1035
fter	-1036
ese	-1037
▁financial	-1038
▁ALIGN	-1039
pment	-1040
8</	-1041
▁es	-1042
Uy	-1043
▁ad	-1044
▁resul	-1045
01</	-1046
Per	-1047
ag	-1048
▁net	-1049
hares	-1050
redit	-1051
:1.0%"/><	-1052
ecember	-1053
▁rel	-1054
Fj	-1055
Oper	-1056
▁business	-1057
Interest	-1058
▁man	-1059
bf	-1060
relative	-1061
Securities	-1062
ices	-1063
▁#0000	-1064
55	-1065
pens	-1066
Cash	-1067
vZnJhZzp	-1068
Fact	-1069
20200	-1070
▁de	-1071
wk	-1072
Business	-1073
-01-	-1074
▁year	-1075
▁reg	-1076
-7	-1077
:0.05	-1078
="1	-1079
Am	-1080
YWJsZTp	-1081
gr	-1082
otes	-1083
:100%">(<	-1084
▁#000000	-1085
▁10	-1086
YWJsZXJhbmdlOm	-1087
▁app	-1088
Yw	-1089
ally	-1090
48	-1091
ple	-1092
ition	-1093
:1%;"></	-1094
3.	-1095
▁ce	-1096
▁it	-1097
lock	-1098
abilities	-1099
cm	-1100
ements	-1101
▁fac	-1102
▁comm	-1103
3,	-1104
ates	-1105
;,	-1106
ca	-1107
▁mark	-1108
31,	-1109
66	-1110
erivative	-1111
Asset	-1112
▁pl	-1113
:&	-1114
50	-1115
42	-1116
;"	-1117
continu	-1118
ertain	-1119
ales	-1120
ents	-1121
2017	-1122
ency	-1123
port	-1124
:18	-1125
hib	-1126
Receivable	-1127
ays	-1128
%</	-1129
FFFFFF	-1130
▁income	-1131
:1.0%"></	-1132
ata	-1133
sive	-1134
term	-1135
▁assets	-1136
▁cell	-1137
hibit	-1138
For	-1139
Bh	-1140
pon	-1141
82	-1142
9;	-1143
At	-1144
pensation	-1145
0);	-1146
Res	-1147
ective	-1148
▁ass	-1149
.25	-1150
venue	-1151
▁ser	-1152
(0,0,0,0);	-1153
▁sub	-1154
erred	-1155
79	-1156
vid	-1157
xLTEt	-1158
4_	-1159
FairValueBy	-1160
inancing	-1161
▁products	-1162
From	-1163
▁includ	-1164
FD	-1165
ug	-1166
bb	-1167
ci	-1168
▁impa	-1169
ran	-1170
▁text	-1171
USD	-1172
ved	-1173
▁J	-1174
="-"	-1175
rease	-1176
rol	-1177
aa	-1178
urch	-1179
ability	-1180
;&	-1181
The	-1182
41	-1183
▁million	-1184
▁including	-1185
hh	-1186
ized	-1187
▁value	-1188
onsolidated	-1189
nti	-1190
ence	-1191
ues	-1192
vice	-1193
Retirement	-1194
ort	-1195
5;	-1196
▁en	-1197
fe	-1198
▁expen	-1199
Pay	-1200
">&#160;</	-1201
bl	-1202
ogn	-1203
erm	-1204
5</	-1205
tors	-1206
gy	-1207
:#00	-1208
▁eff	-1209
▁su	-1210
gre	-1211
▁dis	-1212
ddition	-1213
zer	-1214
;">(	-1215
Based	-1216
RetirementPlan	-1217
hic	-1218
our	-1219
▁mat	-1220
efef	-1221
.7	-1222
FC	-1223
;">&	-1224
59	-1225
ptions	-1226
▁cash	-1227
&#8212;	-1228
▁December	-1229
ific	-1230
cing	-1231
▁#0	-1232
▁could	-1233
arch	-1234
continuation	-1235
tern	-1236
vices	-1237
Bi	-1238
▁custom	-1239
ures	-1240
Derivative	-1241
COL	-1242
ixed	-1243
fa	-1244
prehen	-1245
bd	-1246
prehensive	-1247
▁We	-1248
9"	-1249
▁te	-1250
ous	-1251
pr	-1252
">00000	-1253
cess	-1254
AD	-1255
pu	-1256
ell	-1257
▁right	-1258
▁related	-1259
page	-1260
be	-1261
2022	-1262
try	-1263
-1"	-1264
ount	-1265
kx	-1266
sMember	-1267
▁invest	-1268
lh	-1269
▁Re	-1270
Operating	-1271
spacing	-1272
▁st	-1273
▁was	-1274
▁stock	-1275
▁under	-1276
57	-1277
led	-1278
">1,	-1279
ationAxis	-1280
.1	-1281
Item	-1282
NS	-1283
AP	-1284
ShareBased	-1285
3_	-1286
plo	-1287
hr	-1288
Cost	-1289
IN	-1290
▁off	-1291
▁pay	-1292
ploy	-1293
TR	-1294
Az	-1295
Invest	-1296
efore	-1297
kz	-1298
.2	-1299
COLOR	-1300
5"	-1301
54	-1302
0101-	-1303
lin	-1304
ected	-1305
-01-01</	-1306
Financing	-1307
kw	-1308
ulated	-1309
zed	-1310
;">&#	-1311
▁operations	-1312
▁H	-1313
-6	-1314
arr	-1315
Helvetica	-1316
-3	-1317
▁these	-1318
:1%;	-1319
;">)</	-1320
iscal	-1321
ak	-1322
">0001	-1323
78	-1324
evelo	-1325
DebtInstrument	-1326
orpor	-1327
blig	-1328
▁"	-1329
20201231"	-1330
9</	-1331
fc	-1332
6">	-1333
sis	-1334
▁Ex	-1335
▁7	-1336
Year	-1337
▁po	-1338
fd	-1339
98	-1340
ued	-1341
NC	-1342
__	-1343
NTQ	-1344
hj	-1345
▁ref	-1346
tatements	-1347
1,	-1348
▁0.75	-1349
na	-1350
easur	-1351
ateg	-1352
479	-1353
puts	-1354
vail	-1355
IncomeLoss	-1356
▁certain	-1357
ae	-1358
ways	-1359
ten	-1360
▁market	-1361
Equi	-1362
▁par	-1363
4"	-1364
tory	-1365
:1.	-1366
▁such	-1367
Rate	-1368
hip	-1369
▁over	-1370
13	-1371
tric	-1372
dbdbdb	-1373
Expen	-1374
43	-1375
ener	-1376
wn	-1377
">&#8212;</	-1378
always	-1379
sses	-1380
▁costs	-1381
Dis	-1382
Uni	-1383
Plans	-1384
Or	-1385
:</	-1386
formation	-1387
lec	-1388
96	-1389
4,	-1390
St	-1391
gz	-1392
umulated	-1393
Ser	-1394
after	-1395
so	-1396
YTD	-1397
NjQ	-1398
Period	-1399
FairValueH	-1400
Comm	-1401
overn	-1402
cw	-1403
CFF	-1404
lj	-1405
▁BG	-1406
▁sales	-1407
3333	-1408
▁se	-1409
zation	-1410
26;	-1411
hm	-1412
ases	-1413
otal	-1414
Expense	-1415
oreign	-1416
archy	-1417
▁BGCOLOR	-1418
dh	-1419
IncomeTax	-1420
truc	-1421
1"	-1422
change	-1423
ption	-1424
ho	-1425
dm	-1426
▁qu	-1427
▁sup	-1428
ky	-1429
262626;	-1430
Compensation	-1431
OTT	-1432
Bm	-1433
SegmentsAxis	-1434
▁operating	-1435
just	-1436
Loc	-1437
lk	-1438
BOTT	-1439
8080	-1440
NV	-1441
BOTTOM	-1442
▁trans	-1443
cluding	-1444
62	-1445
ognized	-1446
Comprehensive	-1447
gx	-1448
93	-1449
Bk	-1450
Gain	-1451
94	-1452
1_	-1453
▁$<	-1454
▁pri	-1455
:-1	-1456
▁&#82	-1457
ings	-1458
fb	-1459
Bl	-1460
20;	-1461
▁due	-1462
cb	-1463
exhibit	-1464
&#8221	-1465
07	-1466
ZXh	-1467
cmV	-1468
naW	-1469
Contract	-1470
Inputs	-1471
ker	-1472
ibu	-1473
ach	-1474
cmVnaW	-1475
32;	-1476
(0,0,0,1);	-1477
▁provid	-1478
ible	-1479
1-	-1480
bo	-1481
LocationAxis	-1482
Long	-1483
▁continu	-1484
="-2"	-1485
oli	-1486
▁were	-1487
hold	-1488
ierarchy	-1489
Total	-1490
vailable	-1491
Foreign	-1492
alance	-1493
ork	-1494
▁;	-1495
▁me	-1496
anges	-1497
andard	-1498
92	-1499
fixed	-1500
▁its	-1501
cx	-1502
▁1.0	-1503
8"	-1504
LevelAxis	-1505
▁end	-1506
Le	-1507
number	-1508
1231"><	-1509
ssi	-1510
verage	-1511
uture	-1512
perty	-1513
hk	-1514
▁LT	-1515
20211231"	-1516
YTQ	-1517
esign	-1518
▁has	-1519
&#8203;	-1520
>2023	-1521
Tc	-1522
▁em	-1523
▁addition	-1524
dc	-1525
au	-1526
Table	-1527
4.	-1528
orti	-1529
000	-1530
kerning	-1531
ER	-1532
dic	-1533
alu	-1534
▁risk	-1535
Accumulated	-1536
lm	-1537
FI	-1538
da	-1539
Ac	-1540
56	-1541
▁period	-1542
>&#8203;	-1543
ounts	-1544
▁estim	-1545
MA	-1546
We	-1547
&#8221;	-1548
olog	-1549
NjM	-1550
Measur	-1551
venues	-1552
gw	-1553
Enti	-1554
30</	-1555
gram	-1556
▁margin	-1557
58	-1558
>2021	-1559
Award	-1560
ses	-1561
arning	-1562
--	-1563
▁Cont	-1564
▁billion	-1565
7</	-1566
ood	-1567
▁develo	-1568
5_	-1569
>2020	-1570
Text	-1571
ward	-1572
▁def	-1573
▁will	-1574
>2022	-1575
ra	-1576
zero	-1577
(255,255,	-1578
htm	-1579
76	-1580
(255,255,255,	-1581
▁la	-1582
quired	-1583
Current	-1584
iation	-1585
▁any	-1586
ns	-1587
ificant	-1588
▁repor	-1589
▁j	-1590
Sons	-1591
▁Light	-1592
▁fair	-1593
▁dot	-1594
dddddd	-1595
df	-1596
InputsLevel	-1597
▁appro	-1598
angible	-1599
cz	-1600
▁--	-1601
_10	-1602
▁also	-1603
▁dotted	-1604
RAP	-1605
▁NOW	-1606
With	-1607
Notes	-1608
xLTEtM	-1609
▁NOWRAP	-1610
▁dec	-1611
&#8212;&#160;</	-1612
extract	-1613
>2024	-1614
formance	-1615
OC	-1616
▁tim	-1617
ling	-1618
ategor	-1619
Pension	-1620
!--	-1621
-10	-1622
tangible	-1623
HT	-1624
▁20	-1625
dj	-1626
74	-1627
block	-1628
urrency	-1629
ugh	-1630
hl	-1631
MzQ	-1632
los	-1633
9-	-1634
par	-1635
>2019	-1636
overnment	-1637
:36	-1638
▁prim	-1639
=2></	-1640
lass	-1641
Produc	-1642
▁interest	-1643
Tr	-1644
MjQ	-1645
▁services	-1646
ross	-1647
▁<!--	-1648
;">&#32;	-1649
▁information	-1650
IGHT	-1651
Unit	-1652
cf	-1653
3-	-1654
▁201	-1655
Service	-1656
▁-->	-1657
alized	-1658
fic	-1659
ject	-1660
ied	-1661
Before	-1662
YzQ	-1663
we	-1664
Term	-1665
Dec	-1666
agement	-1667
AssetC	-1668
▁aff	-1669
▁this	-1670
3">	-1671
ODQ	-1672
26;</	-1673
ational	-1674
arily	-1675
04	-1676
&#8226;</	-1677
▁au	-1678
▁accoun	-1679
apital	-1680
NjU	-1681
GainLoss	-1682
202001	-1683
alen	-1684
:#262626;	-1685
Ad	-1686
Custom	-1687
▁COM	-1688
xLTEtMA	-1689
Credit	-1690
200	-1691
▁future	-1692
8-	-1693
81	-1694
▁fi	-1695
Nzc	-1696
Po	-1697
2_	-1698
316	-1699
OS	-1700
ponent	-1701
Bj	-1702
MS	-1703
71	-1704
▁#8080	-1705
▁results	-1706
truct	-1707
ast	-1708
▁31,	-1709
nolog	-1710
lassi	-1711
▁size	-1712
vers	-1713
▁out	-1714
ini	-1715
7,	-1716
EtMS	-1717
uary	-1718
thod	-1719
▁materi	-1720
MzY	-1721
▁liabilities	-1722
▁ev	-1723
ADD	-1724
Lease	-1725
.8	-1726
▁benefit	-1727
dk	-1728
PlanAssets	-1729
▁customers	-1730
les	-1731
▁&#8220;	-1732
edging	-1733
▁gener	-1734
▁acc	-1735
▁new	-1736
Revenue	-1737
ys	-1738
Percent	-1739
▁gro	-1740
7">	-1741
urchase	-1742
91	-1743
▁2020	-1744
▁pre	-1745
ail	-1746
quisition	-1747
Ny	-1748
2">	-1749
ZjQ	-1750
MTQ	-1751
chi	-1752
ade	-1753
:120%"><	-1754
▁significant	-1755
20200101-	-1756
Deferred	-1757
▁rate	-1758
data	-1759
▁their	-1760
valen	-1761
ategories	-1762
▁share	-1763
ape	-1764
arnings	-1765
▁Inc	-1766
Archi	-1767
61	-1768
XzE	-1769
co	-1770
edgar	-1771
▁continued	-1772
31_	-1773
▁3	-1774
Ay	-1775
Excluding	-1776
Archives	-1777
AN	-1778
,"	-1779
NDQ	-1780
▁non	-1781
▁impact	-1782
_10_	-1783
RIGHT	-1784
▁tech	-1785
ollow	-1786
sup	-1787
;"></	-1788
▁changes	-1789
Risk	-1790
877	-1791
ble	-1792
▁primarily	-1793
▁based	-1794
▁all	-1795
NzQ	-1796
▁str	-1797
23	-1798
▁adver	-1799
clos	-1800
EC	-1801
ByPlan	-1802
true	-1803
Financial	-1804
MDk	-1805
rank	-1806
OTE	-1807
ZV	-1808
09	-1809
Arr	-1810
▁.	-1811
ograp	-1812
▁Got	-1813
▁follow	-1814
NDI	-1815
Frank	-1816
Customer	-1817
▁face	-1818
▁Gothic	-1819
:24	-1820
▁Financial	-1821
rough	-1822
Entity	-1823
=2>&	-1824
▁years	-1825
63	-1826
▁consolidated	-1827
MTI	-1828
▁cellpadding	-1829
51	-1830
OTM	-1831
▁cellspacing	-1832
asis	-1833
▁up	-1834
base	-1835
Franklin	-1836
83	-1837
holders	-1838
%"	-1839
ia	-1840
▁statements	-1841
for	-1842
onsolidation	-1843
PlanByPlan	-1844
auto	-1845
YS	-1846
Th	-1847
Liabilities	-1848
▁esc	-1849
▁iss	-1850
PlanByPlanAssetC	-1851
DebtSecurities	-1852
MAND	-1853
MDQ	-1854
ces	-1855
:14	-1856
▁fore	-1857
▁COMMAND	-1858
Benef	-1859
▁debt	-1860
erc	-1861
MTc	-1862
52	-1863
LTEtMS	-1864
Component	-1865
▁2021	-1866
tribu	-1867
:4.5	-1868
arry	-1869
▁br	-1870
YTA	-1871
▁fiscal	-1872
MTY	-1873
▁i	-1874
▁incre	-1875
.4	-1876
On	-1877
Njk	-1878
ystem	-1879
08	-1880
_0001	-1881
rec	-1882
▁resp	-1883
valents	-1884
OWQ	-1885
20221231"	-1886
▁escape	-1887
ZGI	-1888
▁record	-1889
Arrang	-1890
AT	-1891
:130	-1892
MGI	-1893
NDg	-1894
▁law	-1895
▁foreign	-1896
baseline	-1897
▁ga	-1898
Al	-1899
NWU	-1900
">(	-1901
03	-1902
his	-1903
ances	-1904
53	-1905
ative	-1906
▁intern	-1907
row	-1908
StatementEquity	-1909
ComponentsAxis	-1910
.6	-1911
PerShare	-1912
tivi	-1913
ZC	-1914
ODM	-1915
enter	-1916
31"	-1917
6-	-1918
NDM	-1919
YmU	-1920
ortization	-1921
ree	-1922
pli	-1923
IA	-1924
&#160;31,	-1925
tivities	-1926
ategoriesAxis	-1927
▁result	-1928
2-	-1929
Consolidation	-1930
ond	-1931
efefef	-1932
="9"	-1933
eni	-1934
;">&#8212;</	-1935
▁program	-1936
racts	-1937
xLTA	-1938
anding	-1939
87722	-1940
MGY	-1941
Mjc	-1942
Due	-1943
Amount	-1944
6;	-1945
DefinedBenef	-1946
▁2019	-1947
Block	-1948
▁continuedAt	-1949
▁credit	-1950
ODc	-1951
▁cons	-1952
OGY	-1953
TextBlock	-1954
ceed	-1955
▁ne	-1956
ced	-1957
▁tran	-1958
orporate	-1959
▁control	-1960
shares	-1961
ately	-1962
OTQ	-1963
pro	-1964
ODk	-1965
Mi	-1966
OTg	-1967
Sale	-1968
OGI	-1969
:100%">%</	-1970
▁securities	-1971
▁equi	-1972
▁ret	-1973
▁employ	-1974
arter	-1975
0</	-1976
YjU	-1977
ItemsAxis	-1978
▁Ch	-1979
enior	-1980
Equipment	-1981
istr	-1982
NzI	-1983
sid	-1984
bligations	-1985
▁det	-1986
olic	-1987
▁Contents	-1988
NDE	-1989
4%;	-1990
standing	-1991
CA	-1992
ler	-1993
:-18	-1994
ortf	-1995
▁adverse	-1996
ZS	-1997
olio	-1998
72	-1999
▁Form	-2000
▁0.0	-2001
tricted	-2002
based	-2003
ffic	-2004
▁k	-2005
fact	-2006
ees	-2007
▁can	-2008
▁agre	-2009
▁2.25	-2010
73	-2011
5-	-2012
amp	-2013
ED	-2014
▁current	-2015
ater	-2016
ortfolio	-2017
378	-2018
Property	-2019
▁technolog	-2020
ZTA	-2021
Yi	-2022
Ge	-2023
MzA	-2024
▁hig	-2025
uOj	-2026
▁so	-2027
▁sp	-2028
ured	-2029
quir	-2030
▁through	-2031
MC	-2032
Product	-2033
illions	-2034
▁expense	-2035
▁revenue	-2036
▁company	-2037
all	-2038
aluation	-2039
▁.0001	-2040
Arrangement	-2041
MjY	-2042
80;	-2043
XzI	-2044
Hedging	-2045
30"	-2046
fo	-2047
tributable	-2048
▁material	-2049
Standard	-2050
▁included	-2051
int	-2052
MzU	-2053
Adjust	-2054
6,	-2055
YmY	-2056
02	-2057
ODA	-2058
NjE	-2059
OTA	-2060
▁x	-2061
Intangible	-2062
FairValueOf	-2063
oll	-2064
▁#808080;	-2065
0%"><	-2066
▁than	-2067
Investment	-2068
▁condi	-2069
NmU	-2070
▁product	-2071
20191231"	-2072
▁common	-2073
▁vari	-2074
▁into	-2075
▁if	-2076
MWE	-2077
RhYm	-2078
mit	-2079
ZmY	-2080
OTI	-2081
9_	-2082
202201	-2083
onsor	-2084
Geograp	-2085
ati	-2086
▁subject	-2087
06	-2088
YjY	-2089
▁transac	-2090
inance	-2091
▁no	-2092
2.	-2093
rel	-2094
ical	-2095
NmE	-2096
),	-2097
:2.0	-2098
Liability	-2099
▁time	-2100
▁2018	-2101
Sp	-2102
AB	-2103
MDY	-2104
cmF	-2105
="-5"	-2106
eld	-2107
SP	-2108
ortion	-2109
Measurement	-2110
4-	-2111
29</	-2112
MTA	-2113
thor	-2114
NGU	-2115
org	-2116
SegmentMember	-2117
ZmM	-2118
▁ended	-2119
87722;	-2120
:100.00	-2121
▁sty	-2122
Air	-2123
NWE	-2124
Available	-2125
IDIA	-2126
NTg	-2127
NjY	-2128
lob	-2129
Instruments	-2130
Payment	-2131
▁more	-2132
▁Th	-2133
country	-2134
▁been	-2135
▁performance	-2136
▁use	-2137
ets	-2138
xl	-2139
▁well	-2140
ges	-2141
Shares	-2142
ware	-2143
▁ind	-2144
ZWM	-2145
ZTQ	-2146
20210101-	-2147
stre	-2148
CE	-2149
hical	-2150
▁45	-2151
▁investments	-2152
Me	-2153
:100.000%"><	-2154
.3	-2155
ark	-2156
WithCustomer	-2157
control	-2158
av	-2159
RhYmxl	-2160
▁management	-2161
MzI	-2162
NDc	-2163
Common	-2164
OGE	-2165
NDA	-2166
▁div	-2167
▁Our	-2168
>2025	-2169
▁increase	-2170
NzU	-2171
XzM	-2172
>&#8203;<	-2173
▁An	-2174
▁flow	-2175
NDY	-2176
20190	-2177
YTY	-2178
:-9	-2179
▁ca	-2180
YmI	-2181
▁inte	-2182
fication	-2183
▁data	-2184
:1.9	-2185
will	-2186
Geographical	-2187
MjM	-2188
GR	-2189
MDU	-2190
Trans	-2191
▁expenses	-2192
tter	-2193
MTE	-2194
controlling	-2195
▁plan	-2196
MTg	-2197
erence	-2198
ZDg	-2199
Univers	-2200
▁equity	-2201
▁include	-2202
De	-2203
Balance	-2204
ank	-2205
▁compe	-2206
bnb	-2207
cil	-2208
pl	-2209
▁serif	-2210
Eff	-2211
TH	-2212
YjA	-2213
837	-2214
YzI	-2215
16316	-2216
urring	-2217
;">$	-2218
Mzk	-2219
oci	-2220
Airbnb	-2221
PensionPlans	-2222
spar	-2223
NWM	-2224
ereal	-2225
IntangibleAssets	-2226
GeographicalAxis	-2227
▁regul	-2228
closure	-2229
▁part	-2230
7"	-2231
inite	-2232
▁Cereal	-2233
tructuring	-2234
NTU	-2235
NjI	-2236
NGY	-2237
0.	-2238
heet	-2239
▁rates	-2240
ule	-2241
ufact	-2242
:13	-2243
-16	-2244
▁transpar	-2245
arrying	-2246
▁5	-2247
ercial	-2248
EvZnJhZz	-2249
▁long	-2250
▁middle	-2251
oh	-2252
GRID	-2253
▁coun	-2254
onom	-2255
="1"	-2256
OTk	-2257
fied	-2258
Investments	-2259
tle	-2260
▁contracts	-2261
101	-2262
▁requir	-2263
YjE	-2264
uration	-2265
ODY	-2266
ose	-2267
oodwill	-2268
ZTY	-2269
NlYzpj	-2270
11_	-2271
▁system	-2272
jn	-2273
Sponsor	-2274
:6.5	-2275
imum	-2276
go	-2277
sions	-2278
333333	-2279
ationship	-2280
oncil	-2281
▁losses	-2282
YjI	-2283
rued	-2284
Our	-2285
▁loss	-2286
▁char	-2287
Sub	-2288
PaymentAward	-2289
jnj	-2290
▁laws	-2291
lobal	-2292
7-	-2293
Percentage	-2294
Plant	-2295
Payments	-2296
ectively	-2297
>2018	-2298
YTM	-2299
NzE	-2300
▁transparent	-2301
01_	-2302
nual	-2303
▁amount	-2304
MzM	-2305
orp	-2306
ForSale	-2307
OTY	-2308
utive	-2309
▁currency	-2310
▁10-	-2311
▁government	-2312
▁segment	-2313
uro	-2314
Including	-2315
MTU	-2316
iti	-2317
MjA	-2318
YWI	-2319
AndEquipment	-2320
▁K	-2321
▁Am	-2322
▁As	-2323
ODI	-2324
OrService	-2325
letter	-2326
INF	-2327
EM	-2328
YzY	-2329
urn	-2330
;">,	-2331
:128	-2332
MmM	-2333
▁ar	-2334
9">	-2335
Ch	-2336
Mjg	-2337
atur	-2338
6%;	-2339
NetOf	-2340
Yzc	-2341
OrServiceAxis	-2342
MTM	-2343
OF	-2344
Average	-2345
OWI	-2346
8,	-2347
▁10.00	-2348
▁additional	-2349
:120%">&#8226;</	-2350
MjU	-2351
Njc	-2352
20210	-2353
ake	-2354
____	-2355
edi	-2356
ZTc	-2357
eighted	-2358
MWU	-2359
▁reporting	-2360
NVIDIA	-2361
:100%">202	-2362
NTc	-2363
irment	-2364
_11_	-2365
inci	-2366
Gross	-2367
:-0	-2368
Weighted	-2369
YjQ	-2370
Yjc	-2371
ODE	-2372
▁manufact	-2373
hort	-2374
▁align	-2375
▁price	-2376
MDA	-2377
ES	-2378
the	-2379
▁/	-2380
▁development	-2381
PropertyPlant	-2382
current	-2383
ends	-2384
▁payments	-2385
ZjE	-2386
umptions	-2387
▁lease	-2388
NGM	-2389
ace	-2390
10</	-2391
NjA	-2392
Duration	-2393
▁recorded	-2394
rib	-2395
YzM	-2396
YTk	-2397
ZGQ	-2398
rgb	-2399
YWY	-2400
ZGM	-2401
MWQ	-2402
ArrangementBy	-2403
Mjk	-2404
com	-2405
MmQ	-2406
os	-2407
ury	-2408
▁quarter	-2409
MjE	-2410
YmM	-2411
cus	-2412
Yjk	-2413
▁applic	-2414
MDc	-2415
xim	-2416
▁2017	-2417
▁#378	-2418
XzQ	-2419
orporation	-2420
NDU	-2421
bligation	-2422
▁term	-2423
Con	-2424
▁Report	-2425
ZWU	-2426
million	-2427
AvailableForSale	-2428
PlanFairValueOf	-2429
16</	-2430
MDE	-2431
▁:	-2432
ird	-2433
gal	-2434
ld	-2435
▁following	-2436
:16	-2437
use	-2438
OWU	-2439
sider	-2440
OTU	-2441
▁fund	-2442
NTk	-2443
▁abo	-2444
bot	-2445
YV	-2446
(<	-2447
Lived	-2448
">2,	-2449
2019_	-2450
Amortization	-2451
▁tot	-2452
NTY	-2453
ZWY	-2454
OWM	-2455
sh	-2456
orporated	-2457
ODU	-2458
▁customer	-2459
YWU	-2460
100	-2461
du	-2462
umer	-2463
▁design	-2464
Allow	-2465
aj	-2466
tee	-2467
anuary	-2468
9,	-2469
:20	-2470
▁used	-2471
onth	-2472
▁process	-2473
Zjk	-2474
FromContract	-2475
Reconcil	-2476
▁revenues	-2477
="2	-2478
ust	-2479
▁grow	-2480
Yzk	-2481
utions	-2482
';">	-2483
:42	-2484
▁12	-2485
ey	-2486
▁COL	-2487
▁shares	-2488
▁inter	-2489
▁taxes	-2490
ecurity	-2491
MGE	-2492
ving	-2493
▁activities	-2494
▁basis	-2495
AS	-2496
YWE	-2497
Noncontrolling	-2498
31837	-2499
MGQ	-2500
▁third	-2501
:1%;">	-2502
Equivalents	-2503
31837;	-2504
29,	-2505
▁recognized	-2506
Mzg	-2507
of	-2508
ie	-2509
▁7.75	-2510
odi	-2511
stretirement	-2512
▁expected	-2513
Reclassi	-2514
IT	-2515
YTc	-2516
/0001	-2517
YWM	-2518
ZWQ	-2519
▁affect	-2520
put	-2521
Class	-2522
0_	-2523
▁competi	-2524
Nzg	-2525
:13.	-2526
prec	-2527
ZGY	-2528
CashEquivalents	-2529
ffer	-2530
ects	-2531
laim	-2532
ZTg	-2533
tici	-2534
="6">	-2535
BB	-2536
▁each	-2537
:0.1%	-2538
ajor	-2539
:96	-2540
MDM	-2541
:15	-2542
▁plans	-2543
United	-2544
▁set	-2545
Method	-2546
OV	-2547
NzA	-2548
MzE	-2549
Rel	-2550
tiv	-2551
fr	-2552
▁amounts	-2553
YTI	-2554
umber	-2555
requ	-2556
▁obligations	-2557
igation	-2558
▁lic	-2559
27</	-2560
ense	-2561
NlYzow	-2562
here	-2563
ZDQ	-2564
▁during	-2565
ssessed	-2566
tates	-2567
ula	-2568
▁those	-2569
>2024-12-31</	-2570
▁required	-2571
Assessed	-2572
InterestRate	-2573
orld	-2574
Options	-2575
AssessedTax	-2576
>2023-12-31</	-2577
ply	-2578
:0.1%"/></	-2579
ru	-2580
Attributable	-2581
realized	-2582
YjM	-2583
MDI	-2584
XzU	-2585
enc	-2586
NTM	-2587
wo	-2588
tit	-2589
Note	-2590
vol	-2591
▁pres	-2592
MWI	-2593
:42.75	-2594
NGE	-2595
ZjM	-2596
6_	-2597
lation	-2598
OWE	-2599
tMy	-2600
▁offer	-2601
▁capital	-2602
AC	-2603
SPAN	-2604
▁approxim	-2605
▁19	-2606
▁work	-2607
▁increased	-2608
NetOfTax	-2609
Par	-2610
Recurring	-2611
NmI	-2612
Fiscal	-2613
MjI	-2614
AttributableTo	-2615
▁COLSPAN	-2616
28</	-2617
encies	-2618
▁earnings	-2619
:9.0	-2620
:0.01	-2621
emain	-2622
▁vol	-2623
24</	-2624
sidi	-2625
▁filed	-2626
▁service	-2627
OGQ	-2628
ched	-2629
▁Notes	-2630
ollar	-2631
>2022-12-31</	-2632
▁fo	-2633
▁contract	-2634
▁These	-2635
▁total	-2636
▁millions	-2637
▁associ	-2638
ZWI	-2639
▁ec	-2640
SU	-2641
:5.	-2642
▁Act	-2643
YWQ	-2644
mploy	-2645
dei	-2646
7;	-2647
OTc	-2648
Portfolio	-2649
ained	-2650
▁ability	-2651
ult	-2652
ZGU	-2653
ection	-2654
Out	-2655
▁For	-2656
pri	-2657
▁prote	-2658
LongTerm	-2659
ZDY	-2660
▁bet	-2661
Revenues	-2662
0-	-2663
aid	-2664
▁Se	-2665
▁pur	-2666
IDTH	-2667
Restructuring	-2668
:48	-2669
/>	-2670
NTA	-2671
▁acquisition	-2672
eral	-2673
▁comple	-2674
Stockholders	-2675
edge	-2676
pal	-2677
preciation	-2678
initeLived	-2679
urope	-2680
OWY	-2681
SegmentsMember	-2682
20190101-	-2683
NzM	-2684
▁Stock	-2685
ZjY	-2686
▁nt	-2687
:9.5	-2688
DebtTypeAxis	-2689
ner	-2690
▁Statements	-2691
role	-2692
EB	-2693
▁ob	-2694
▁reference	-2695
ptember	-2696
▁WIDTH	-2697
NmY	-2698
ecutive	-2699
During	-2700
PlanMember	-2701
▁risks	-2702
▁provide	-2703
ould	-2704
Iss	-2705
OGM	-2706
Yjg	-2707
Noncurrent	-2708
1">	-2709
RiskAxis	-2710
:-0.1	-2711
ina	-2712
December	-2713
▁low	-2714
EquityMethod	-2715
▁change	-2716
:2.	-2717
▁after	-2718
▁Medi	-2719
roup	-2720
Continu	-2721
WeightedAverage	-2722
▁Plan	-2723
▁equipment	-2724
17</	-2725
:1.05;	-2726
4">	-2727
Longterm	-2728
ins	-2729
▁="	-2730
114	-2731
8">	-2732
▁respectively	-2733
:130%">	-2734
NWI	-2735
▁when	-2736
▁ins	-2737
:#333333	-2738
Reconciliation	-2739
ublic	-2740
▁asset	-2741
cat	-2742
panies	-2743
YmQ	-2744
▁Next	-2745
Sales	-2746
▁one	-2747
ead	-2748
DER	-2749
▁consider	-2750
677	-2751
▁dem	-2752
onomic	-2753
▁0"><	-2754
2.5	-2755
Disclosure	-2756
ction	-2757
ounting	-2758
Restricted	-2759
sident	-2760
NmM	-2761
jp	-2762
ederal	-2763
ween	-2764
▁approximately	-2765
nded	-2766
inue	-2767
OGU	-2768
NDk	-2769
ice	-2770
quire	-2771
=2>&#8203;</	-2772
315	-2773
▁number	-2774
fff	-2775
▁within	-2776
gainst	-2777
Pr	-2778
sia	-2779
YTE	-2780
:128%">	-2781
DIN	-2782
▁receivable	-2783
Adjustment	-2784
▁main	-2785
▁regulations	-2786
ceeds	-2787
▁available	-2788
▁exchange	-2789
▁develop	-2790
▁position	-2791
▁bec	-2792
wards	-2793
ters	-2794
8_	-2795
:7.0	-2796
erves	-2797
Di	-2798
NlYzpl	-2799
▁percent	-2800
lect	-2801
▁Corporation	-2802
:8.0	-2803
Accrued	-2804
-24	-2805
loc	-2806
Pri	-2807
▁generally	-2808
lection	-2809
MF	-2810
urance	-2811
ZTI	-2812
NlYzox	-2813
Yl	-2814
cop	-2815
▁claim	-2816
NTE	-2817
MmI	-2818
vir	-2819
▁allow	-2820
>2020-12-31</	-2821
789	-2822
▁adversely	-2823
▁ve	-2824
▁date	-2825
NGQ	-2826
▁ag	-2827
ZDc	-2828
MDg	-2829
tent	-2830
dding	-2831
:0%;	-2832
ohns	-2833
▁8	-2834
▁continue	-2835
▁would	-2836
ZmQ	-2837
ustry	-2838
ohnson	-2839
incipal	-2840
Ass	-2841
▁accounting	-2842
ZjI	-2843
▁fir	-2844
Operations	-2845
tries	-2846
▁who	-2847
tivity	-2848
▁he	-2849
▁#000000;">	-2850
▁associated	-2851
▁9	-2852
ORDER	-2853
Finance	-2854
viron	-2855
>2021-12-31</	-2856
AL	-2857
▁investment	-2858
ution	-2859
).	-2860
Design	-2861
_1	-2862
otenti	-2863
2;	-2864
pres	-2865
requency	-2866
▁effective	-2867
gm	-2868
▁regula	-2869
Postretirement	-2870
▁employees	-2871
alth	-2872
20220101-	-2873
:12.	-2874
YTU	-2875
▁order	-2876
▁spec	-2877
Njg	-2878
Effective	-2879
▁200	-2880
MmU	-2881
▁reas	-2882
▁against	-2883
▁between	-2884
=2><	-2885
▁Res	-2886
▁transactions	-2887
Sheet	-2888
ou	-2889
uOm	-2890
>&#160;	-2891
irec	-2892
YTg	-2893
▁January	-2894
Reclassification	-2895
▁Dis	-2896
NlYzpi	-2897
-45	-2898
▁Acc	-2899
▁ont	-2900
▁top	-2901
Portion	-2902
dG	-2903
:8.	-2904
-47	-2905
▁bot	-2906
▁requirements	-2907
▁estimated	-2908
-40	-2909
BalanceSheet	-2910
▁meas	-2911
7_	-2912
Unrealized	-2913
▁systems	-2914
YmE	-2915
▁flows	-2916
CommonStock	-2917
7,24	-2918
▁agreements	-2919
ist	-2920
▁bottom	-2921
ser	-2922
0,25	-2923
▁experi	-2924
(20	-2925
sing	-2926
▁using	-2927
greement	-2928
ke	-2929
▁technology	-2930
zerod	-2931
4217	-2932
▁growth	-2933
2020_	-2934
▁potenti	-2935
iso	-2936
2,1);	-2937
▁De	-2938
Im	-2939
zerodash	-2940
▁production	-2941
(207,24	-2942
0,252,1);	-2943
uted	-2944
AndOther	-2945
EA	-2946
ages	-2947
9.	-2948
ZmI	-2949
Goodwill	-2950
side	-2951
earch	-2952
usdPerShare	-2953
NlYzoy	-2954
Senior	-2955
▁internal	-2956
Exp	-2957
▁his	-2958
(207,240,252,1);	-2959
ild	-2960
Employ	-2961
▁Medium	-2962
▁recei	-2963
ODg	-2964
ventory	-2965
;">1,	-2966
aries	-2967
YzU	-2968
▁adjust	-2969
▁benefits	-2970
mental	-2971
▁><	-2972
EvZnJhZzo	-2973
Number	-2974
_6	-2975
fon	-2976
-20	-2977
">5	-2978
:-2	-2979
Than	-2980
▁vehic	-2981
ants	-2982
NGI	-2983
▁States	-2984
▁factors	-2985
11;	-2986
▁cr	-2987
CashAnd	-2988
XzY	-2989
▁Offic	-2990
dex	-2991
olicy	-2992
MTk	-2993
ftware	-2994
▁they	-2995
.,	-2996
="-8"	-2997
one	-2998
BeforeTax	-2999
▁beli	-3000
chedule	-3001
_000116316	-3002
..	-3003
Measurements	-3004
>2019-12-31</	-3005
Frequency	-3006
▁balance	-3007
10.	-3008
▁own	-3009
Accounts	-3010
">000005	-3011
liver	-3012
tMi	-3013
ines	-3014
="1">&	-3015
:#0	-3016
▁United	-3017
8%;	-3018
▁op	-3019
efd	-3020
-49	-3021
▁&	-3022
Increase	-3023
DeferredTax	-3024
cept	-3025
FrequencyAxis	-3026
MGU	-3027
ebr	-3028
▁Pre	-3029
▁compensation	-3030
arket	-3031
(255,255,255,1);	-3032
▁conditions	-3033
ob	-3034
▁markets	-3035
201912	-3036
202101	-3037
▁2016	-3038
▁various	-3039
Range	-3040
_0	-3041
YzA	-3042
Au	-3043
229,	-3044
Schedule	-3045
vel	-3046
ebruary	-3047
Corporate	-3048
su	-3049
-09-	-3050
▁ro	-3051
▁instru	-3052
Zjg	-3053
▁Note	-3054
-25	-3055
:120%">&#160;</	-3056
▁global	-3057
▁effect	-3058
ading	-3059
▁author	-3060
Mzc	-3061
NzY	-3062
3/	-3063
cl	-3064
829	-3065
▁6	-3066
ZWE	-3067
▁support	-3068
1.	-3069
FiniteLived	-3070
▁method	-3071
Valuation	-3072
RiY	-3073
MzQx	-3074
tives	-3075
urther	-3076
InstrumentAxis	-3077
onths	-3078
▁enter	-3079
▁estimates	-3080
▁Is	-3081
ZDI	-3082
IO	-3083
ZmE	-3084
139	-3085
:27	-3086
$<	-3087
NF	-3088
ely	-3089
urchases	-3090
arg	-3091
vZnJhZzoz	-3092
▁distr	-3093
orrow	-3094
inated	-3095
Ret	-3096
ZTM	-3097
▁impairment	-3098
340	-3099
Benefits	-3100
orth	-3101
312	-3102
MjQy	-3103
alc	-3104
▁center	-3105
Exchange	-3106
ExpenseBenefit	-3107
▁reason	-3108
▁cre	-3109
OWVh	-3110
-19	-3111
vdG	-3112
30-	-3113
▁Exhibit	-3114
https	-3115
ise	-3116
▁Consolidated	-3117
Obligation	-3118
20220	-3119
▁world	-3120
▁notes	-3121
Acquisition	-3122
▁purchase	-3123
_2	-3124
▁regulatory	-3125
>2025-12-31</	-3126
▁there	-3127
▁property	-3128
ZmU	-3129
ination	-3130
▁determ	-3131
YmNi	-3132
_00	-3133
Johnson	-3134
recognized	-3135
▁unc	-3136
-44	-3137
YWJsZTpm	-3138
ech	-3139
:32	-3140
▁companies	-3141
ership	-3142
MV	-3143
2134	-3144
:45	-3145
OperatingLease	-3146
▁4	-3147
-46	-3148
res	-3149
▁assess	-3150
sic	-3151
▁respon	-3152
Yzg	-3153
Group	-3154
TO	-3155
▁programs	-3156
5%">	-3157
▁liability	-3158
-48	-3159
Nzk	-3160
OTQx	-3161
▁sell	-3162
DuringPeriod	-3163
▁differ	-3164
als	-3165
jOjc	-3166
cto	-3167
AA	-3168
ission	-3169
▁demand	-3170
20201231"><	-3171
▁left	-3172
;">&#160;	-3173
*</	-3174
▁prior	-3175
▁deferred	-3176
▁gu	-3177
clud	-3178
reas	-3179
ENT	-3180
anti	-3181
▁payment	-3182
ms	-3183
irc	-3184
pared	-3185
sidiaries	-3186
▁higher	-3187
ources	-3188
▁sol	-3189
AccumulatedOther	-3190
▁commercial	-3191
ctober	-3192
vZnJhZzph	-3193
▁high	-3194
▁er	-3195
▁expect	-3196
5">	-3197
▁suppli	-3198
ministr	-3199
▁bg	-3200
vZnJhZzox	-3201
cmFn	-3202
loud	-3203
:4.	-3204
ScheduleOf	-3205
ZTU	-3206
mcmFn	-3207
ety	-3208
▁bgcolor	-3209
4;	-3210
▁mod	-3211
purchase	-3212
Decrease	-3213
NjRh	-3214
Allowance	-3215
Capital	-3216
NA	-3217
3414	-3218
▁table	-3219
:120%">(	-3220
▁#000000">&	-3221
▁includes	-3222
;">%</	-3223
▁sho	-3224
ish	-3225
emaining	-3226
▁pt	-3227
aly	-3228
MtMS	-3229
hief	-3230
:100%;"><	-3231
▁Comm	-3232
ticipa	-3233
▁Q	-3234
RecurringMember	-3235
rant	-3236
▁repres	-3237
:#0068	-3238
atform	-3239
▁offset	-3240
:10.	-3241
Zjc	-3242
▁environ	-3243
vZnJhZzpi	-3244
YWJsZTow	-3245
Earnings	-3246
▁claims	-3247
Flow	-3248
▁prices	-3249
▁security	-3250
▁standard	-3251
Carrying	-3252
▁instruments	-3253
▁issued	-3254
NDQy	-3255
▁Text	-3256
20</	-3257
-15	-3258
ile	-3259
▁Reg	-3260
YWJsZTpl	-3261
CashFlow	-3262
onal	-3263
▁economic	-3264
AR	-3265
loss	-3266
1)</	-3267
▁sec	-3268
▁redu	-3269
88</	-3270
wer	-3271
RlL	-3272
ZTk	-3273
BORDER	-3274
6770;	-3275
▁President	-3276
BR	-3277
▁ter	-3278
▁2022	-3279
vZnJhZzoy	-3280
uZ	-3281
YjBh	-3282
:22.5	-3283
-10-	-3284
▁outstanding	-3285
ended	-3286
▁tyle	-3287
▁lower	-3288
▁Agreement	-3289
▁Europe	-3290
202012	-3291
▁arr	-3292
vZnJhZzpj	-3293
ml	-3294
▁had	-3295
ZGE	-3296
oard	-3297
Not	-3298
DC	-3299
▁incorporated	-3300
_0000	-3301
▁#3	-3302
▁yle	-3303
FE	-3304
ensed	-3305
▁styl	-3306
▁height	-3307
129	-3308
ada	-3309
note	-3310
istrant	-3311
▁deliver	-3312
Outstanding	-3313
▁experience	-3314
ContractMember	-3315
party	-3316
YWJsZTph	-3317
.0</	-3318
▁upon	-3319
ged	-3320
▁ext	-3321
OTNi	-3322
:14.5	-3323
_9	-3324
Paid	-3325
:125	-3326
_7	-3327
Consolidated	-3328
2021_	-3329
Employee	-3330
▁dri	-3331
cmFuZ	-3332
LTMtMS	-3333
EquitySecurities	-3334
Years	-3335
▁val	-3336
ands	-3337
Expected	-3338
▁2020,	-3339
erica	-3340
work	-3341
▁profit	-3342
ZDk	-3343
▁about	-3344
RangeAxis	-3345
RhYmxlcmFuZ	-3346
out	-3347
▁2023	-3348
="4"	-3349
▁Officer	-3350
YWJsZTpj	-3351
▁potential	-3352
▁level	-3353
MmE	-3354
ili	-3355
▁rights	-3356
▁see	-3357
_202	-3358
▁background	-3359
ermin	-3360
YzVh	-3361
▁pension	-3362
">000001	-3363
ented	-3364
vZnJhZzpk	-3365
_5	-3366
ZDU	-3367
jOjA	-3368
ks	-3369
uris	-3370
341439	-3371
2018_	-3372
vision	-3373
/200	-3374
OTBl	-3375
-29	-3376
▁Con	-3377
▁Tr	-3378
5.	-3379
▁some	-3380
▁incur	-3381
">4	-3382
MWY	-3383
▁believe	-3384
">1</	-3385
MGM	-3386
rect	-3387
26</	-3388
▁commit	-3389
▁exis	-3390
▁If	-3391
ovember	-3392
ited	-3393
ful	-3394
_4	-3395
pay	-3396
/0000	-3397
-26	-3398
-28	-3399
Depreciation	-3400
IncomeTaxRate	-3401
▁regard	-3402
IncomeStatement	-3403
otnote	-3404
CC	-3405
IncomeLossFrom	-3406
▁September	-3407
DD	-3408
aximum	-3409
XzEw	-3410
-11	-3411
ZDM	-3412
▁No	-3413
jpg	-3414
▁condition	-3415
▁xml	-3416
25</	-3417
yber	-3418
▁Exchange	-3419
12</	-3420
:#0075	-3421
count	-3422
YWJsZToy	-3423
▁1,	-3424
▁impac	-3425
SeniorNotes	-3426
▁assumptions	-3427
▁terms	-3428
">2	-3429
anagement	-3430
entive	-3431
Cons	-3432
▁Y	-3433
▁legal	-3434
reasury	-3435
ending	-3436
▁sale	-3437
="1%"></	-3438
MGNh	-3439
Addition	-3440
NmQ	-3441
pendent	-3442
-42	-3443
ences	-3444
tNS	-3445
urity	-3446
centr	-3447
▁May	-3448
olicies	-3449
▁2022,	-3450
ors	-3451
lish	-3452
▁public	-3453
urisdic	-3454
00</	-3455
▁ful	-3456
20211231"><	-3457
Ojd	-3458
▁make	-3459
YjFi	-3460
▁industry	-3461
pep	-3462
:-12	-3463
ps	-3464
referred	-3465
NWY	-3466
FB	-3467
Short	-3468
78901	-3469
▁software	-3470
ai	-3471
double	-3472
:5.0	-3473
▁Oper	-3474
YWJsZTox	-3475
YWJsZToz	-3476
3799	-3477
▁volum	-3478
IS	-3479
▁applicable	-3480
▁but	-3481
uccess	-3482
>&	-3483
▁2024	-3484
▁China	-3485
Related	-3486
▁0.0);	-3487
▁oil	-3488
934	-3489
▁2023,	-3490
▁pers	-3491
bG	-3492
verti	-3493
Proceeds	-3494
▁less	-3495
ministrative	-3496
▁among	-3497
jOjk	-3498
Ml	-3499
ZjU	-3500
oper	-3501
▁war	-3502
billion	-3503
Ba	-3504
▁supply	-3505
hether	-3506
year	-3507
Costs	-3508
▁evalu	-3509
▁manufacturing	-3510
eo	-3511
urchased	-3512
▁recogn	-3513
">3,	-3514
▁impro	-3515
▁Securities	-3516
esc	-3517
3;	-3518
NmRl	-3519
ummar	-3520
_7">	-3521
icing	-3522
vZnJhZzpm	-3523
vZnJhZzpl	-3524
▁uncertain	-3525
▁dated	-3526
▁revi	-3527
:7.	-3528
:9.	-3529
NTI	-3530
▁Annual	-3531
MGIw	-3532
▁made	-3533
▁est	-3534
NWQ	-3535
gative	-3536
tional	-3537
▁2021,	-3538
202009	-3539
▁October	-3540
erch	-3541
ollars	-3542
uance	-3543
▁capa	-3544
Position	-3545
-41	-3546
10-	-3547
erci	-3548
ZDE	-3549
▁initi	-3550
DE	-3551
▁lit	-3552
▁distribu	-3553
nel	-3554
ZDA	-3555
Open	-3556
inimum	-3557
cu	-3558
▁platform	-3559
Impa	-3560
8605	-3561
.032	-3562
Form	-3563
IncludingPortion	-3564
une	-3565
Name	-3566
▁2.5	-3567
21</	-3568
apit	-3569
NjQx	-3570
_12	-3571
TableTextBlock	-3572
Currency	-3573
-43	-3574
▁settle	-3575
FiscalYear	-3576
▁countries	-3577
aran	-3578
AwardTypeAxis	-3579
▁xmlns	-3580
Xzg	-3581
dits	-3582
IncreaseDecrease	-3583
TextSe	-3584
▁Other	-3585
▁item	-3586
YzE	-3587
YWJsZTpk	-3588
TextSelection	-3589
Parent	-3590
▁12.25	-3591
▁fail	-3592
eries	-3593
_8	-3594
▁first	-3595
▁financing	-3596
▁compared	-3597
Divid	-3598
>(<	-3599
Njll	-3600
▁act	-3601
▁whether	-3602
:1.94%;	-3603
:6.	-3604
FibG	-3605
▁stor	-3606
MmY	-3607
FA	-3608
▁subst	-3609
▁td	-3610
ici	-3611
arge	-3612
OtherThan	-3613
▁international	-3614
BC	-3615
grega	-3616
continued	-3617
▁2024,	-3618
fle	-3619
▁where	-3620
▁negative	-3621
_0001163165_	-3622
="-3"	-3623
Ind	-3624
pos	-3625
▁Intern	-3626
Fund	-3627
ortized	-3628
318605	-3629
▁Ref	-3630
;">1	-3631
▁both	-3632
ZDRm	-3633
ality	-3634
▁ty	-3635
▁jurisdic	-3636
▁divid	-3637
ZTE	-3638
ani	-3639
related	-3640
IncomeTaxes	-3641
▁St	-3642
Basis	-3643
▁gains	-3644
vZnJhZzow	-3645
SegmentAxis	-3646
erivatives	-3647
ular	-3648
>%	-3649
▁sim	-3650
▁AND	-3651
pliance	-3652
:-	-3653
/2003/	-3654
:0.530	-3655
Recognized	-3656
7.	-3657
15"	-3658
ests	-3659
NmZl	-3660
inc	-3661
▁This	-3662
BenefitPlans	-3663
uild	-3664
00016	-3665
MjRk	-3666
Market	-3667
▁leases	-3668
:100%">1,	-3669
EMENT	-3670
531"	-3671
25"	-3672
▁state	-3673
_3	-3674
len	-3675
DA	-3676
▁below	-3677
Yjgz	-3678
▁technologies	-3679
sist	-3680
0;"><	-3681
ause	-3682
acility	-3683
▁access	-3684
="2">	-3685
tsla	-3686
▁success	-3687
▁ado	-3688
▁Can	-3689
Five	-3690
MTFl	-3691
▁businesses	-3692
▁parties	-3693
ibm	-3694
:96.032	-3695
▁model	-3696
eneral	-3697
▁actions	-3698
▁held	-3699
Loans	-3700
-17	-3701
Treasury	-3702
▁paid	-3703
▁provided	-3704
igh	-3705
xom	-3706
▁mon	-3707
▁regarding	-3708
▁derivative	-3709
▁Direc	-3710
nder	-3711
▁vi	-3712
▁network	-3713
▁occ	-3714
▁limit	-3715
Hedge	-3716
ister	-3717
LongTermDebt	-3718
NlYzpm	-3719
alcul	-3720
▁disc	-3721
▁facilities	-3722
">&#	-3723
,&#8221;	-3724
ustr	-3725
YThh	-3726
▁periods	-3727
▁Executive	-3728
15</	-3729
EFF	-3730
erve	-3731
ZGUw	-3732
▁Rus	-3733
▁report	-3734
FR	-3735
▁adv	-3736
NDYy	-3737
▁charges	-3738
MWFh	-3739
acc	-3740
▁ing	-3741
-27	-3742
wide	-3743
339	-3744
Additional	-3745
▁lead	-3746
▁integr	-3747
202112	-3748
tNC	-3749
3%;	-3750
divid	-3751
YWJsZTpi	-3752
UtMS	-3753
;">&#8226;</	-3754
▁ear	-3755
NzZj	-3756
▁consumer	-3757
▁Credit	-3758
omes	-3759
LTI	-3760
▁strateg	-3761
-14	-3762
.5</	-3763
Jan	-3764
YWFh	-3765
▁intangible	-3766
▁#0068	-3767
▁carrying	-3768
Major	-3769
YmUw	-3770
sible	-3771
▁maintain	-3772
lected	-3773
▁existing	-3774
tionAnd	-3775
▁0.0)	-3776
Acquired	-3777
suant	-3778
jOjI	-3779
▁row	-3780
▁litigation	-3781
educ	-3782
467	-3783
.&#160;	-3784
▁2025	-3785
▁conn	-3786
▁receivables	-3787
Zjcw	-3788
ilar	-3789
▁meet	-3790
pfe	-3791
Payable	-3792
19</	-3793
Government	-3794
Xzk	-3795
2%;	-3796
BA	-3797
ink	-3798
:1.00	-3799
py	-3800
▁reported	-3801
Adjustments	-3802
8230</	-3803
siz	-3804
▁most	-3805
ned	-3806
ging	-3807
">0000018230</	-3808
Used	-3809
ulti	-3810
ABLE	-3811
▁US	-3812
▁arrang	-3813
:12.64	-3814
Yjhj	-3815
isa	-3816
CCE	-3817
inal	-3818
▁comprehensive	-3819
RlMD	-3820
▁offic	-3821
▁rg	-3822
vdGFibG	-3823
pril	-3824
▁portion	-3825
ode	-3826
">000005114	-3827
Yzli	-3828
229,229,	-3829
ByTypeAxis	-3830
▁Tax	-3831
erio	-3832
▁Board	-3833
">0000051143</	-3834
69%;	-3835
▁transaction	-3836
Issued	-3837
▁rgba	-3838
▁return	-3839
201909	-3840
After	-3841
orcl	-3842
▁accord	-3843
▁discus	-3844
▁further	-3845
MTkx	-3846
▁require	-3847
▁">	-3848
ZjA	-3849
▁Chief	-3850
▁Item	-3851
▁follows	-3852
Unrecognized	-3853
2018</	-3854
▁></	-3855
&#8220;	-3856
MmYy	-3857
NTQx	-3858
ZDZh	-3859
68</	-3860
▁perform	-3861
lassified	-3862
ZTRi	-3863
LTUtMS	-3864
ponents	-3865
2017</	-3866
▁matters	-3867
ZGVm	-3868
▁events	-3869
ZDQx	-3870
19312	-3871
-35	-3872
';">&#160;</	-3873
">6	-3874
ZTYx	-3875
adb	-3876
18</	-3877
ently	-3878
:112	-3879
▁suppliers	-3880
▁short	-3881
▁rowspan	-3882
▁need	-3883
BD	-3884
▁loc	-3885
▁before	-3886
▁jud	-3887
:28	-3888
Assumptions	-3889
/000119312	-3890
">00016	-3891
▁reduc	-3892
▁awards	-3893
▁&#8211;	-3894
▁federal	-3895
MWM	-3896
box	-3897
bac	-3898
FinanceLease	-3899
-</	-3900
ow	-3901
FROM	-3902
4%;">	-3903
▁affected	-3904
:130%;	-3905
porting	-3906
ress	-3907
▁exam	-3908
YjZh	-3909
ZDQw	-3910
▁Accounting	-3911
ProceedsFrom	-3912
▁borrow	-3913
YTEy	-3914
NmYz	-3915
▁enti	-3916
footnote	-3917
▁adjustments	-3918
ZTcz	-3919
▁expos	-3920
servable	-3921
tructure	-3922
▁Al	-3923
tomo	-3924
▁major	-3925
MGFk	-3926
:13.28	-3927
▁subsidiaries	-3928
▁Fr	-3929
UR	-3930
Continuing	-3931
▁hold	-3932
ZWNl	-3933
CCEEFF	-3934
▁0.5	-3935
>2023-01-01</	-3936
▁inventory	-3937
▁principal	-3938
asing	-3939
MTFk	-3940
▁standards	-3941
limin	-3942
Reserves	-3943
RiNT	-3944
sequ	-3945
▁invol	-3946
▁acquired	-3947
▁#262626;	-3948
BE	-3949
tomotive	-3950
▁policies	-3951
Maximum	-3952
32</	-3953
ma	-3954
14</	-3955
RjYj	-3956
Two	-3957
0">	-3958
406</	-3959
▁poli	-3960
▁cour	-3961
▁Cond	-3962
eriodic	-3963
arm	-3964
RmY	-3965
vested	-3966
20181231"	-3967
CIAL	-3968
▁cover	-3969
ries	-3970
▁many	-3971
dependent	-3972
Receivables	-3973
▁license	-3974
▁partn	-3975
▁substanti	-3976
:0.25	-3977
▁u	-3978
apitalized	-3979
YTNk	-3980
OtherThanOptions	-3981
▁ng	-3982
bination	-3983
Services	-3984
37996</	-3985
Policy	-3986
80</	-3987
189</	-3988
20180101-	-3989
▁February	-3990
▁contrib	-3991
OTZl	-3992
adi	-3993
▁options	-3994
▁merch	-3995
LTItMS	-3996
YmRl	-3997
12,	-3998
▁Condensed	-3999
________	-4000
▁across	-4001
▁average	-4002
:100%">1	-4003
">0000037996</	-4004
Subsegment	-4005
▁health	-4006
▁equivalents	-4007
▁cyber	-4008
▁values	-4009
dividual	-4010
NDRj	-4011
ablish	-4012
▁agreement	-4013
cluded	-4014
▁portfolio	-4015
2019</	-4016
▁direct	-4017
▁March	-4018
▁vehicles	-4019
MDVi	-4020
tack	-4021
:125%">	-4022
ising	-4023
▁fl	-4024
INAN	-4025
ViY	-4026
TaxBenefits	-4027
:54	-4028
uly	-4029
ules	-4030
▁dam	-4031
20180	-4032
">00010	-4033
-30	-4034
lear	-4035
▁annual	-4036
▁infr	-4037
Zy	-4038
110	-4039
▁gas	-4040
;">2,	-4041
:30	-4042
ION	-4043
igital	-4044
80;"><	-4045
INANCIAL	-4046
▁Ar	-4047
▁2019,	-4048
:0.69%;	-4049
YmZl	-4050
▁prac	-4051
Orig	-4052
▁#808080;"><	-4053
cedures	-4054
2022_	-4055
▁On	-4056
ested	-4057
YjQz	-4058
AE	-4059
OTYx	-4060
">4,	-4061
497	-4062
34</	-4063
OTcy	-4064
858</	-4065
posi	-4066
security	-4067
Co	-4068
ATEMENT	-4069
▁judgment	-4070
LL	-4071
dity	-4072
ind	-4073
OTRj	-4074
:13.5	-4075
Change	-4076
iluted	-4077
▁general	-4078
emic	-4079
:14.	-4080
ably	-4081
;">20	-4082
YjRi	-4083
▁gran	-4084
ClassOf	-4085
▁coll	-4086
▁identif	-4087
▁dr	-4088
:5.2	-4089
▁span	-4090
200406</	-4091
eful	-4092
InPeriod	-4093
NiOD	-4094
ShortTerm	-4095
▁disp	-4096
3"><	-4097
▁consum	-4098
">0000200406</	-4099
▁cli	-4100
▁Ended	-4101
▁three	-4102
gregate	-4103
ica	-4104
▁decrease	-4105
▁13	-4106
plement	-4107
▁accounts	-4108
justed	-4109
centration	-4110
NTkw	-4111
NlYzpk	-4112
-34	-4113
▁November	-4114
see	-4115
dia	-4116
Facility	-4117
▁conf	-4118
494	-4119
ODRi	-4120
DesignationAxis	-4121
-31	-4122
341439_	-4123
>2018-12-31</	-4124
Translation	-4125
:-2.8	-4126
▁funds	-4127
▁jurisdictions	-4128
▁corporate	-4129
closures	-4130
xLTEtMT	-4131
_0001341439_	-4132
Set	-4133
▁resulting	-4134
Losses	-4135
▁parti	-4136
35</	-4137
8%;">	-4138
▁pan	-4139
Discontinued	-4140
Entities	-4141
11,	-4142
AzYj	-4143
▁adding	-4144
▁transf	-4145
7800	-4146
ko	-4147
33</	-4148
YTZi	-4149
arb	-4150
495	-4151
XzEx	-4152
NzVh	-4153
ginning	-4154
▁establish	-4155
orable	-4156
aler	-4157
Commercial	-4158
▁Statement	-4159
EF	-4160
3-4	-4161
tili	-4162
atus	-4163
▁#5	-4164
▁(&#8220;	-4165
Performance	-4166
▁test	-4167
▁above	-4168
▁Income	-4169
▁marketing	-4170
▁fe	-4171
NumberOf	-4172
2-4	-4173
:11.	-4174
:-3	-4175
▁estimate	-4176
unit	-4177
324	-4178
;">201	-4179
▁trade	-4180
▁To	-4181
QxMW	-4182
Refs	-4183
▁hedg	-4184
ince	-4185
YWc	-4186
jOmMx	-4187
Intern	-4188
▁reduce	-4189
704	-4190
:-3.5	-4191
31_2019_	-4192
▁compliance	-4193
30_	-4194
11</	-4195
ZyYWc	-4196
Dividends	-4197
▁2025,	-4198
ously	-4199
▁sold	-4200
atural	-4201
ZjJm	-4202
▁Visa	-4203
▁circ	-4204
▁Lo	-4205
aff	-4206
ically	-4207
29"	-4208
▁determin	-4209
ZTRh	-4210
>2017	-4211
▁being	-4212
:114	-4213
Originated	-4214
▁here	-4215
Sharebased	-4216
Stated	-4217
26"	-4218
Diluted	-4219
▁review	-4220
eople	-4221
FmOD	-4222
QtMS	-4223
▁ign	-4224
315189</	-4225
▁Bank	-4226
No	-4227
Mzli	-4228
▁histor	-4229
YjJk	-4230
erti	-4231
▁June	-4232
paddi	-4233
▁reasonable	-4234
NameAxis	-4235
086	-4236
▁Sup	-4237
▁px	-4238
▁class	-4239
31_2021_	-4240
jOjY	-4241
▁multi	-4242
-36	-4243
ery	-4244
789019_	-4245
▁add	-4246
az	-4247
-06-	-4248
Nzlk	-4249
▁ding	-4250
">0000315189</	-4251
_0000789019_	-4252
▁om	-4253
▁because	-4254
29-	-4255
Yzdh	-4256
Basic	-4257
▁rele	-4258
ateral	-4259
▁priv	-4260
quidity	-4261
tories	-4262
▁proj	-4263
putation	-4264
▁gre	-4265
acy	-4266
stances	-4267
Matur	-4268
ern	-4269
▁disru	-4270
CreditFacility	-4271
ercise	-4272
-5"	-4273
914	-4274
ilit	-4275
▁local	-4276
▁materially	-4277
▁volume	-4278
evelopment	-4279
ature	-4280
alties	-4281
▁pricing	-4282
▁similar	-4283
black	-4284
▁saf	-4285
alysis	-4286
ZTNj	-4287
▁cri	-4288
1-4	-4289
oid	-4290
▁alloc	-4291
▁employee	-4292
Char	-4293
CD	-4294
28"	-4295
AllowanceFor	-4296
27"	-4297
nergy	-4298
8.	-4299
▁dding	-4300
_10_29	-4301
75</	-4302
paddin	-4303
YTVh	-4304
▁">&	-4305
mited	-4306
posal	-4307
▁America	-4308
6.	-4309
36</	-4310
llect	-4311
:#333333;">	-4312
Transac	-4313
llectual	-4314
Relationship	-4315
:17	-4316
▁Senior	-4317
ound	-4318
▁amortization	-4319
YTBi	-4320
Yjcy	-4321
▁weight	-4322
YzQw	-4323
▁Equity	-4324
odity	-4325
▁represent	-4326
pad	-4327
▁sh	-4328
force	-4329
-21	-4330
crole	-4331
▁jo	-4332
671	-4333
6-4	-4334
▁practic	-4335
.7</	-4336
MTNh	-4337
▁STATEMENT	-4338
▁recover	-4339
▁Vice	-4340
OTBk	-4341
NetIncomeLoss	-4342
tu	-4343
mcmFnOj	-4344
;">2017</	-4345
.9</	-4346
rual	-4347
▁items	-4348
▁lign	-4349
285	-4350
693	-4351
ATED	-4352
NmJi	-4353
8-4	-4354
Concentration	-4355
">7	-4356
20221231"><	-4357
▁gn	-4358
▁partially	-4359
▁them	-4360
▁positions	-4361
▁valuation	-4362
oods	-4363
NGJj	-4364
_11_1_	-4365
ceedings	-4366
Accounting	-4367
2023	-4368
ODlm	-4369
ClassAxis	-4370
ni	-4371
4-4	-4372
▁cor	-4373
site	-4374
634	-4375
▁"><	-4376
163165</	-4377
▁fixed	-4378
ITEM	-4379
ulative	-4380
▁inf	-4381
▁offerings	-4382
▁competitive	-4383
-85	-4384
38</	-4385
MmQz	-4386
▁incurred	-4387
9-4	-4388
831	-4389
▁purpo	-4390
RkNG	-4391
ision	-4392
2020</	-4393
EE	-4394
Inter	-4395
">0001163165</	-4396
▁bank	-4397
20201	-4398
-05-	-4399
▁fees	-4400
umed	-4401
abor	-4402
AAP	-4403
fas	-4404
▁comp	-4405
▁payable	-4406
LTQtMS	-4407
Author	-4408
▁defined	-4409
▁partners	-4410
day	-4411
▁controls	-4412
:32.2	-4413
:6.0	-4414
▁dep	-4415
▁fr	-4416
Price	-4417
YjIy	-4418
▁components	-4419
Ng	-4420
fasb	-4421
YTMw	-4422
easure	-4423
8292	-4424
:#000000;">	-4425
;">2018</	-4426
aw	-4427
▁segments	-4428
▁At	-4429
▁only	-4430
▁procedures	-4431
TABLE	-4432
arget	-4433
Nzli	-4434
▁ener	-4435
payments	-4436
▁2018,	-4437
▁Co	-4438
-89	-4439
city	-4440
NjQw	-4441
▁restric	-4442
sen	-4443
YzFm	-4444
▁30,	-4445
▁group	-4446
▁four	-4447
▁pursuant	-4448
AccruedInterest	-4449
NlYzph	-4450
MDEw	-4451
="15"	-4452
jOjU	-4453
▁accordance	-4454
Three	-4455
▁ight	-4456
State	-4457
▁ge	-4458
▁ght	-4459
MDNi	-4460
:-1.00	-4461
564	-4462
SE	-4463
▁limited	-4464
90</	-4465
Zjlh	-4466
▁energy	-4467
ZF	-4468
▁1%;	-4469
78003</	-4470
ite	-4471
▁ol	-4472
ZGRi	-4473
▁typ	-4474
own	-4475
▁registrant	-4476
wap	-4477
MDNh	-4478
▁North	-4479
YjZk	-4480
▁Cour	-4481
Ro	-4482
backgro	-4483
▁member	-4484
▁ht	-4485
▁Directors	-4486
relationship	-4487
;">.	-4488
sc	-4489
Prior	-4490
ZmUx	-4491
▁arrangements	-4492
">0000078003</	-4493
ription	-4494
▁forward	-4495
OTlj	-4496
39%;	-4497
▁FINANCIAL	-4498
▁finance	-4499
Designated	-4500
CarryingAmount	-4501
cv	-4502
174	-4503
▁$1	-4504
▁STATEMENTS	-4505
▁audit	-4506
▁respect	-4507
NGNj	-4508
ForeignCurrency	-4509
0"></	-4510
2021</	-4511
30,	-4512
alig	-4513
MDRj	-4514
-39	-4515
OVID	-4516
echnolog	-4517
Use	-4518
37</	-4519
ADE	-4520
flex	-4521
▁sus	-4522
lying	-4523
ped	-4524
3&#160;</	-4525
:112%">	-4526
▁herein	-4527
RhYj	-4528
Obligations	-4529
-12"	-4530
▁org	-4531
▁Risk	-4532
An	-4533
CashFlowHedge	-4534
).</	-4535
▁$</	-4536
fac	-4537
ide	-4538
7-4	-4539
Settle	-4540
NOTE	-4541
-6"	-4542
CB	-4543
▁accept	-4544
▁present	-4545
ii	-4546
▁utili	-4547
ticular	-4548
▁cloud	-4549
eases	-4550
5%;	-4551
Deb	-4552
irm	-4553
volving	-4554
ens	-4555
fi	-4556
NjMz	-4557
CF	-4558
less	-4559
OGVl	-4560
One	-4561
▁Court	-4562
▁sever	-4563
▁April	-4564
ZjNl	-4565
XzEy	-4566
YjQy	-4567
ODBm	-4568
YmVh	-4569
MDUw	-4570
Xzc	-4571
▁hel	-4572
▁rest	-4573
5-4	-4574
93410</	-4575
2016	-4576
7747	-4577
▁desc	-4578
ditures	-4579
▁00	-4580
">(1)</	-4581
▁9.00	-4582
▁attributable	-4583
Us	-4584
umulative	-4585
ForeignExchange	-4586
▁actual	-4587
Impairment	-4588
Disposal	-4589
YmVk	-4590
▁commun	-4591
visions	-4592
">0000093410</	-4593
ZmZl	-4594
274	-4595
:3.	-4596
:-3.	-4597
ential	-4598
:120%">(<	-4599
-80	-4600
MjIw	-4601
OGJk	-4602
Conting	-4603
▁settlement	-4604
Tw	-4605
-05-31</	-4606
ustrali	-4607
▁CO	-4608
▁particular	-4609
IV	-4610
730	-4611
Effect	-4612
Pre	-4613
orded	-4614
ZTFm	-4615
▁CE	-4616
20191231"><	-4617
MDMy	-4618
Allowances	-4619
▁months	-4620
-84	-4621
▁specific	-4622
itigation	-4623
ecti	-4624
tax	-4625
truction	-4626
ugust	-4627
ining	-4628
SH	-4629
:99.	-4630
Activities	-4631
ulture	-4632
-33	-4633
Four	-4634
▁individual	-4635
▁determined	-4636
DB	-4637
▁Ser	-4638
▁mis	-4639
3500	-4640
▁consist	-4641
veness	-4642
▁intellectual	-4643
ude	-4644
MTVl	-4645
6%;">	-4646
ategy	-4647
NGZi	-4648
lers	-4649
2)</	-4650
▁people	-4651
dury	-4652
▁Un	-4653
NDYx	-4654
YTFh	-4655
MDlj	-4656
484	-4657
▁designed	-4658
▁,	-4659
duryear	-4660
unction	-4661
measure	-4662
DF	-4663
"/>	-4664
112	-4665
Mjll	-4666
▁goodwill	-4667
hy	-4668
ODdl	-4669
▁brand	-4670
:-4	-4671
▁administrative	-4672
ByMajor	-4673
▁Commit	-4674
▁regi	-4675
uctu	-4676
RjMz	-4677
▁two	-4678
/0001193125	-4679
nov	-4680
▁harm	-4681
cument	-4682
▁solutions	-4683
Zjkx	-4684
▁Operations	-4685
>2020-01-01</	-4686
▁units	-4687
▁retail	-4688
XBR	-4689
▁currently	-4690
">5,	-4691
ZmYz	-4692
atis	-4693
175	-4694
-86	-4695
link	-4696
▁anticipa	-4697
XBRL	-4698
▁charge	-4699
▁amended	-4700
▁7%;	-4701
.900	-4702
▁relating	-4703
SecuritiesMember	-4704
EarningsPerShare	-4705
-18	-4706
atives	-4707
▁Management	-4708
▁alle	-4709
▁received	-4710
omestic	-4711
▁termin	-4712
▁down	-4713
rael	-4714
celer	-4715
▁occur	-4716
▁licen	-4717
Back	-4718
▁achi	-4719
▁connection	-4720
tees	-4721
_12_	-4722
ZjVj	-4723
:105%">	-4724
▁OF	-4725
cvx	-4726
So	-4727
1)	-4728
27-	-4729
▁Ac	-4730
OGRh	-4731
▁obtain	-4732
▁determine	-4733
▁driven	-4734
▁research	-4735
▁circum	-4736
39</	-4737
-4"	-4738
170	-4739
_000	-4740
▁Pr	-4741
NTBi	-4742
ByHedging	-4743
▁contractual	-4744
3.5	-4745
kely	-4746
;">5	-4747
:5.85	-4748
Program	-4749
jOmU	-4750
StatedPercentage	-4751
NGRh	-4752
-7"	-4753
▁Sy	-4754
▁obligation	-4755
tNi	-4756
;">4	-4757
▁attack	-4758
MmUw	-4759
rc	-4760
ByMajorClassAxis	-4761
gric	-4762
▁reserves	-4763
Company	-4764
▁allowance	-4765
NDEy	-4766
▁Ad	-4767
▁life	-4768
▁restricted	-4769
AF	-4770
FhOD	-4771
NmZj	-4772
▁Commission	-4773
RelationshipAxis	-4774
▁option	-4775
."	-4776
OWJl	-4777
7%;	-4778
Minimum	-4779
uel	-4780
MmJh	-4781
Preferred	-4782
AcquisitionAxis	-4783
67</	-4784
▁action	-4785
:-3.15	-4786
▁levels	-4787
="2">&	-4788
2"><	-4789
img	-4790
MzBh	-4791
RhND	-4792
▁pen	-4793
▁does	-4794
▁previ	-4795
ux	-4796
MWFi	-4797
reased	-4798
>2021-01-01</	-4799
AllowancesAnd	-4800
▁relationship	-4801
▁See	-4802
▁elec	-4803
9595	-4804
-90	-4805
IK	-4806
Less	-4807
annel	-4808
&#8221;)	-4809
state	-4810
racle	-4811
YmZm	-4812
IncomeMember	-4813
urns	-4814
▁manage	-4815
▁SEC	-4816
YTQz	-4817
going	-4818
date	-4819
▁line	-4820
606	-4821
allen	-4822
▁3.00	-4823
atest	-4824
used	-4825
ummary	-4826
20201226"	-4827
tics	-4828
>2022-01-01</	-4829
▁loans	-4830
▁account	-4831
▁strategic	-4832
hkYT	-4833
easured	-4834
VhMT	-4835
▁remaining	-4836
aking	-4837
MWZj	-4838
jOjE	-4839
DesignatedAs	-4840
▁environmental	-4841
uman	-4842
▁Canada	-4843
YjVm	-4844
▁key	-4845
-37	-4846
▁conduc	-4847
▁card	-4848
_2023_	-4849
JmNz	-4850
▁digital	-4851
astructure	-4852
-87	-4853
RkMj	-4854
istered	-4855
rtx	-4856
VlNj	-4857
▁presented	-4858
secured	-4859
▁2015	-4860
XzEz	-4861
▁gain	-4862
Option	-4863
ODlh	-4864
:115%">	-4865
illed	-4866
▁provides	-4867
ep	-4868
UsMember	-4869
▁measures	-4870
PensionAndOther	-4871
▁Section	-4872
▁II	-4873
:10.7	-4874
pted	-4875
ODYy	-4876
▁rem	-4877
384	-4878
YjVi	-4879
alified	-4880
▁delay	-4881
▁granted	-4882
▁family	-4883
">2</	-4884
ZDMw	-4885
2%;">	-4886
orts	-4887
NzJl	-4888
.<	-4889
▁15	-4890
-65	-4891
▁compar	-4892
harm	-4893
man	-4894
ZTVj	-4895
ffs	-4896
▁fluctu	-4897
ults	-4898
MGNl	-4899
0-4	-4900
▁instit	-4901
▁COVID	-4902
>2024-01-01</	-4903
OWEx	-4904
▁recognize	-4905
▁Net	-4906
fications	-4907
416	-4908
NGFm	-4909
364	-4910
▁ther	-4911
ror	-4912
NSOL	-4913
ZmNh	-4914
▁2019</	-4915
paid	-4916
▁grant	-4917
▁says	-4918
▁inves	-4919
OWRj	-4920
▁reli	-4921
NSOLID	-4922
630"	-4923
▁build	-4924
▁protection	-4925
▁historical	-4926
:100%">2,	-4927
846	-4928
9.5	-4929
▁2018</	-4930
▁ab	-4931
▁outside	-4932
RhYmxlOj	-4933
21344</	-4934
MmQw	-4935
Xzct	-4936
▁circumstances	-4937
▁acquisitions	-4938
jOjd	-4939
Remaining	-4940
diNj	-4941
▁independent	-4942
;">3,	-4943
▁Ford	-4944
▁liquidity	-4945
▁country	-4946
▁src	-4947
">0000021344</	-4948
▁Control	-4949
829</	-4950
ZDRj	-4951
▁operate	-4952
;">2	-4953
▁competitors	-4954
14,	-4955
NWUx	-4956
ulting	-4957
Leases	-4958
OWMy	-4959
reases	-4960
▁past	-4961
▁focus	-4962
NSOLIDATED	-4963
▁alt	-4964
nke	-4965
;-	-4966
YTdm	-4967
YjVh	-4968
YThj	-4969
ssible	-4970
avoid	-4971
ZWQy	-4972
▁gi	-4973
-13"	-4974
▁TO	-4975
▁effects	-4976
QwY	-4977
NmUz	-4978
▁AI	-4979
▁provision	-4980
▁interests	-4981
NDFh	-4982
ardware	-4983
TreasuryStock	-4984
">9	-4985
▁same	-4986
12927</	-4987
operating	-4988
Be	-4989
▁stores	-4990
2&#160;</	-4991
NmIx	-4992
21344	-4993
Repurchase	-4994
MWJj	-4995
▁purposes	-4996
15,	-4997
Units	-4998
▁materials	-4999
▁practices	-5000
YtMS	-5001
lmt	-5002
NQ	-5003
InCapital	-5004
DisposalGroup	-5005
UnrealizedLoss	-5006
▁resources	-5007
">0000012927</	-5008
▁repurchase	-5009
pypl	-5010
penses	-5011
atory	-5012
▁vehicle	-5013
>2019-01-01</	-5014
MWZm	-5015
9364	-5016
SUs	-5017
Reserve	-5018
MmRm	-5019
apan	-5020
hers	-5021
Past	-5022
look	-5023
▁mo	-5024
inside	-5025
):</	-5026
▁increasing	-5027
">1.	-5028
IR	-5029
_10_30_	-5030
tore	-5031
ODUw	-5032
9%;	-5033
185	-5034
▁Fac	-5035
▁exposure	-5036
Vari	-5037
jOjVj	-5038
Capitalized	-5039
▁proceedings	-5040
MTJl	-5041
MmZk	-5042
OTQy	-5043
318605_	-5044
120	-5045
▁while	-5046
▁tom	-5047
▁govern	-5048
AdditionalPaid	-5049
Months	-5050
acific	-5051
Measured	-5052
NDQx	-5053
intc	-5054
any	-5055
lu	-5056
▁challen	-5057
_0001318605_	-5058
Ag	-5059
OWIz	-5060
▁negatively	-5061
;">-	-5062
rants	-5063
YTBm	-5064
44</	-5065
:-4.5	-5066
aster	-5067
▁Br	-5068
OTZlY	-5069
NTFh	-5070
YWUy	-5071
▁natural	-5072
▁cybersecurity	-5073
ger	-5074
MmRk	-5075
NTRm	-5076
Retained	-5077
uit	-5078
▁consis	-5079
GainLossOn	-5080
atili	-5081
▁Russia	-5082
ectiveness	-5083
PreferredStock	-5084
▁seek	-5085
heets	-5086
jOjEx	-5087
▁distribution	-5088
▁rep	-5089
raft	-5090
▁expenditures	-5091
YWIx	-5092
▁example	-5093
:1.96%;	-5094
▁min	-5095
UwMzI	-5096
▁found	-5097
MTRl	-5098
BF	-5099
246	-5100
Legal	-5101
▁2017,	-5102
New	-5103
Mzgz	-5104
YTUy	-5105
▁ottom	-5106
ulation	-5107
:0.82	-5108
-202	-5109
▁0000	-5110
▁beginning	-5111
inery	-5112
ServiceCost	-5113
-97	-5114
IyNDI	-5115
▁help	-5116
/(	-5117
paration	-5118
ph	-5119
ODAx	-5120
▁win	-5121
>$<	-5122
PaymentsTo	-5123
NTBh	-5124
dbb	-5125
▁Inte	-5126
dis	-5127
Nzdh	-5128
add	-5129
MTZj	-5130
.'	-5131
wordsen	-5132
bott	-5133
ness	-5134
▁likely	-5135
▁insurance	-5136
Ph	-5137
ified	-5138
▁power	-5139
ron	-5140
▁ize	-5141
NmMw	-5142
▁impacted	-5143
ODkz	-5144
MjVj	-5145
▁reme	-5146
▁consumers	-5147
▁Per	-5148
TER	-5149
▁successful	-5150
dicate	-5151
ZTll	-5152
▁cal	-5153
BusinessCom	-5154
Maturity	-5155
portation	-5156
▁xt	-5157
Sec	-5158
ZTAx	-5159
458	-5160
posed	-5161
wise	-5162
▁applications	-5163
▁Pay	-5164
▁complex	-5165
ZjBm	-5166
▁safety	-5167
RhYmxlOm	-5168
enew	-5169
;">&#160;&#160;	-5170
964	-5171
YmZk	-5172
owe	-5173
">0000101	-5174
YTJk	-5175
YWVj	-5176
1%;	-5177
▁commitments	-5178
531	-5179
▁ttom	-5180
▁direc	-5181
esting	-5182
OA	-5183
MGFi	-5184
▁classified	-5185
▁her	-5186
NmZlMTc	-5187
;">2016</	-5188
▁Current	-5189
Es	-5190
lived	-5191
Research	-5192
▁Addition	-5193
▁&#8212;	-5194
ribed	-5195
including	-5196
▁go	-5197
owever	-5198
▁Incentive	-5199
OWUx	-5200
frica	-5201
-09-30</	-5202
">0000101829</	-5203
NmRlZjQ	-5204
NzliL	-5205
ife	-5206
▁guaran	-5207
77</	-5208
▁thre	-5209
LTYtMS	-5210
ZGVmNDYx	-5211
ZWNlMDMy	-5212
▁:2	-5213
▁Qu	-5214
&#14	-5215
MzQxNjRh	-5216
Recorded	-5217
MjQyNmRlZjQ	-5218
▁others	-5219
="1%"	-5220
jOmIyNDI	-5221
ZmUxNzliL	-5222
ZDNk	-5223
OfUse	-5224
&#160;&#160;</	-5225
:120%">$</	-5226
47</	-5227
▁range	-5228
MTJi	-5229
Under	-5230
Fixed	-5231
:10.5	-5232
▁person	-5233
xLTI	-5234
▁Value	-5235
▁ze	-5236
entures	-5237
NDkz	-5238
NzYx	-5239
ZDEx	-5240
▁investig	-5241
very	-5242
▁activity	-5243
MzQxNjRhOTZlY	-5244
OCI	-5245
RightOfUse	-5246
ZWNlMDMyNmZlMTc	-5247
OWMx	-5248
▁Produc	-5249
ient	-5250
85</	-5251
Nzhl	-5252
OTIz	-5253
ZjZi	-5254
▁gross	-5255
ohn	-5256
Yjhi	-5257
ZmND	-5258
MjRl	-5259
OGVk	-5260
ZjJj	-5261
▁">&#160;</	-5262
▁wh	-5263
MjAy	-5264
Principal	-5265
▁Au	-5266
NTUw	-5267
▁discount	-5268
▁excess	-5269
▁bro	-5270
-64	-5271
Periodic	-5272
:0.530%"></	-5273
▁Cash	-5274
not	-5275
OGIz	-5276
etary	-5277
Inves	-5278
▁31,</	-5279
ass	-5280
▁int	-5281
▁Israel	-5282
CreditLoss	-5283
PastDue	-5284
iliates	-5285
OTBh	-5286
ither	-5287
▁strategy	-5288
Njhm	-5289
tled	-5290
▁trad	-5291
.&#160;&#160;	-5292
3%"></	-5293
EntitiesAxis	-5294
Nw	-5295
000</	-5296
▁otherwise	-5297
368	-5298
OTUx	-5299
botto	-5300
OTFl	-5301
▁appropri	-5302
414	-5303
op	-5304
atility	-5305
▁July	-5306
September	-5307
xy	-5308
CostOf	-5309
NTli	-5310
,"#	-5311
ZWNk	-5312
NetPeriodic	-5313
YzMw	-5314
2017_	-5315
RiZmY	-5316
OTli	-5317
▁8.00	-5318
▁open	-5319
jOmM	-5320
lar	-5321
YWFj	-5322
vlo	-5323
OWRl	-5324
OperationsBefore	-5325
Profit	-5326
iv	-5327
YTcz	-5328
vent	-5329
NkNTg	-5330
MTQw	-5331
▁leg	-5332
&#8211;	-5333
jOjUw	-5334
IES	-5335
YjBl	-5336
▁efforts	-5337
_1_	-5338
:#00704	-5339
ING	-5340
▁#333333	-5341
efe	-5342
Charges	-5343
Alloc	-5344
▁expa	-5345
▁imm	-5346
gage	-5347
MGFh	-5348
anced	-5349
Yjdi	-5350
ViODM	-5351
Role	-5352
dow	-5353
▁quality	-5354
▁eight	-5355
sb	-5356
▁Ap	-5357
▁entered	-5358
noun	-5359
iz	-5360
375	-5361
Exhibit	-5362
▁hedges	-5363
ADECOLOR	-5364
YTYw	-5365
▁processes	-5366
YTQw	-5367
xNjM	-5368
▁assessment	-5369
3087	-5370
▁larg	-5371
▁sheet	-5372
▁unable	-5373
▁Compensation	-5374
ChangeIn	-5375
ZDkx	-5376
NWRkNG	-5377
Direc	-5378
YTli	-5379
▁CELL	-5380
ZjVjNl	-5381
SHADECOLOR	-5382
YTRm	-5383
MjIwNTQ	-5384
ODlmNWM	-5385
gine	-5386
YjIyMDU	-5387
YmZmNDA	-5388
jOjRiZmY	-5389
IncomeExpense	-5390
uch	-5391
ODdlYjgz	-5392
ZTkz	-5393
▁Data	-5394
Purchase	-5395
▁content	-5396
▁cent	-5397
77476</	-5398
alculating	-5399
Njdi	-5400
Vf	-5401
MDViMjIwNTQ	-5402
▁forec	-5403
plemental	-5404
-11-0	-5405
▁able	-5406
NWRkNGNkNTg	-5407
ZDIy	-5408
Grant	-5409
▁extent	-5410
UT	-5411
outh	-5412
ZThh	-5413
General	-5414
▁Li	-5415
ises	-5416
:24.75	-5417
▁assurance	-5418
ROW	-5419
▁den	-5420
">10	-5421
">0000077476</	-5422
">0001467	-5423
NTRl	-5424
YjZj	-5425
▁Business	-5426
49</	-5427
134	-5428
▁>	-5429
▁rules	-5430
Inventory	-5431
OWFh	-5432
YTZh	-5433
tex	-5434
▁nec	-5435
-75	-5436
FOR	-5437
February	-5438
MTdi	-5439
▁infrastructure	-5440
886	-5441
">00003	-5442
">0001467858</	-5443
▁accrued	-5444
▁reputation	-5445
▁Pri	-5446
▁timing	-5447
YWFi	-5448
Variable	-5449
">6,	-5450
425	-5451
▁guid	-5452
MjRj	-5453
SubsegmentsAxis	-5454
▁Rel	-5455
▁web	-5456
="2%"	-5457
Federal	-5458
ticipan	-5459
:#0077	-5460
Ap	-5461
ZTZi	-5462
▁aggregate	-5463
RightOfUseAsset	-5464
ODky	-5465
Changes	-5466
MGRk	-5467
▁It	-5468
RestrictedStock	-5469
▁derivatives	-5470
PolicyTextBlock	-5471
YTBk	-5472
ROWSHADECOLOR	-5473
Commit	-5474
epsi	-5475
▁statement	-5476
:100%">2023</	-5477
OGFl	-5478
/00000	-5479
20211225"	-5480
▁possible	-5481
NlND	-5482
ZmRh	-5483
307	-5484
▁Information	-5485
40</	-5486
:0.82%;">	-5487
ZTMx	-5488
:72	-5489
ODhh	-5490
ZDVl	-5491
NjRjYj	-5492
▁cause	-5493
&#160;30,	-5494
▁kno	-5495
▁anti	-5496
pace	-5497
YWJk	-5498
aging	-5499
▁August	-5500
bfe	-5501
▁contain	-5502
Trading	-5503
▁borrowings	-5504
▁increases	-5505
▁8-	-5506
▁En	-5507
Contrib	-5508
▁acceler	-5509
other	-5510
▁since	-5511
▁described	-5512
val	-5513
StockIssued	-5514
version	-5515
ource	-5516
▁dividends	-5517
▁enable	-5518
ventories	-5519
arryfor	-5520
Return	-5521
-95	-5522
YmJm	-5523
ints	-5524
DebtMember	-5525
▁Share	-5526
-01-31"	-5527
ZDcw	-5528
ignificant	-5529
ples	-5530
:0.0%;	-5531
▁full	-5532
VyYW	-5533
nZT	-5534
▁delivery	-5535
▁prom	-5536
ealth	-5537
perties	-5538
Njkw	-5539
▁organi	-5540
AzY	-5541
YThhMD	-5542
portun	-5543
NmL	-5544
Latest	-5545
MmVj	-5546
▁substantial	-5547
▁cases	-5548
▁except	-5549
vertible	-5550
YearsBefore	-5551
OTlk	-5552
YzZl	-5553
AssetsMember	-5554
hile	-5555
▁hedge	-5556
BenefitCost	-5557
50</	-5558
ench	-5559
Point	-5560
Future	-5561
issions	-5562
Col	-5563
%;"><	-5564
HR	-5565
ZTMy	-5566
▁Germ	-5567
829224</	-5568
▁issuance	-5569
▁members	-5570
01"	-5571
Transf	-5572
Issuance	-5573
ingd	-5574
88%;	-5575
ODEz	-5576
sian	-5577
▁plant	-5578
-11"	-5579
OTdj	-5580
-10"	-5581
▁joint	-5582
▁reports	-5583
-9"	-5584
Status	-5585
▁discoun	-5586
RecurringBasis	-5587
▁dealer	-5588
▁issues	-5589
▁beh	-5590
jOmVm	-5591
ODcx	-5592
▁fav	-5593
NDli	-5594
▁reasonably	-5595
con	-5596
30"><	-5597
853	-5598
NWNh	-5599
▁critical	-5600
">0000829224</	-5601
="100	-5602
xNDI	-5603
:100%">2022</	-5604
MaximumMember	-5605
Continued	-5606
IwYjY	-5607
jOjgw	-5608
:100%">10	-5609
NonUsMember	-5610
▁provisions	-5611
aceu	-5612
ZjZl	-5613
▁car	-5614
▁Japan	-5615
▁30	-5616
UxZmM	-5617
YzdhL	-5618
jOjgwNTBi	-5619
NjZh	-5620
exic	-5621
mate	-5622
_2018_	-5623
QxMWRiY	-5624
▁2017</	-5625
Njgx	-5626
▁reduction	-5627
8"><	-5628
JmNF	-5629
3087;	-5630
MDUwYjA	-5631
NzZjZTFm	-5632
alf	-5633
MTFkYmNi	-5634
ero	-5635
:100%">5	-5636
NmJm	-5637
harmaceu	-5638
jOjgwNTBiMDlj	-5639
▁color	-5640
entives	-5641
Repayments	-5642
:100%">10.	-5643
▁Committee	-5644
YjBi	-5645
28,	-5646
33%"/><	-5647
▁remain	-5648
▁implement	-5649
▁underlying	-5650
▁diver	-5651
-02	-5652
ough	-5653
MTFkYmNiMGI	-5654
dH	-5655
YThhMDQxMWRiY	-5656
▁Part	-5657
NzZjZTFmYzdhL	-5658
:#5	-5659
125	-5660
Mjcy	-5661
▁necess	-5662
OWNh	-5663
xLTQ	-5664
936468</	-5665
001-	-5666
45</	-5667
">3	-5668
35002</	-5669
ZTRk	-5670
▁environment	-5671
-13	-5672
▁considered	-5673
▁should	-5674
-8"	-5675
;">(<	-5676
▁chain	-5677
YWJsZXJhbmdlOjk	-5678
410	-5679
harmaceutical	-5680
="6	-5681
▁rating	-5682
MTMy	-5683
Zjdk	-5684
Consumer	-5685
NjQz	-5686
MjNl	-5687
kxNz	-5688
elling	-5689
">0000936468</	-5690
▁penalties	-5691
▁effectiveness	-5692
famil	-5693
abb	-5694
87</	-5695
NWFi	-5696
▁requires	-5697
▁percentage	-5698
OTdi	-5699
Zjdi	-5700
">0001035002</	-5701
NzRi	-5702
▁exte	-5703
:9.9	-5704
lv	-5705
34088</	-5706
▁failure	-5707
xNDg	-5708
▁weighted	-5709
mcmFnOm	-5710
MTUy	-5711
▁approach	-5712
_2024_	-5713
0863</	-5714
▁become	-5715
▁Australi	-5716
_11_1_2020_	-5717
184	-5718
31_2020_	-5719
1001-	-5720
utes	-5721
uber	-5722
▁enh	-5723
mcd	-5724
3)</	-5725
▁authorities	-5726
Add	-5727
▁vertical	-5728
obile	-5729
endment	-5730
">0000034088</	-5731
202109	-5732
">0000050863</	-5733
215	-5734
-11-	-5735
YzBj	-5736
AssumptionsUsed	-5737
▁either	-5738
NmNi	-5739
Discount	-5740
▁party	-5741
alances	-5742
▁exec	-5743
▁sm	-5744
▁returns	-5745
ZDEw	-5746
▁consideration	-5747
▁ongoing	-5748
Qu	-5749
que	-5750
Mzlm	-5751
MGQz	-5752
▁comply	-5753
ik	-5754
ODQy	-5755
▁previously	-5756
▁reflect	-5757
avgo	-5758
▁capacity	-5759
▁Rec	-5760
IC	-5761
:0.494	-5762
:114%">	-5763
Ve	-5764
ZjVi	-5765
▁inputs	-5766
StockAxis	-5767
▁completed	-5768
ZmFj	-5769
lective	-5770
▁und	-5771
Europe	-5772
▁variety	-5773
60</	-5774
OTZj	-5775
Acquire	-5776
Njgz	-5777
:2.25	-5778
265	-5779
MTdm	-5780
;">10	-5781
-77	-5782
NzVhM	-5783
:100%">&#8212;</	-5784
OTIy	-5785
xNjY	-5786
Zjgx	-5787
NOTES	-5788
24%;	-5789
▁relationships	-5790
679	-5791
ZWYz	-5792
:1.7	-5793
vert	-5794
hev	-5795
OGYy	-5796
sbux	-5797
344	-5798
▁2016,	-5799
urrencies	-5800
ZjQz	-5801
▁significantly	-5802
sequent	-5803
ZjIx	-5804
;">2019</	-5805
▁hardware	-5806
369	-5807
Asia	-5808
MDdl	-5809
_11_3_	-5810
NjFm	-5811
essee	-5812
vements	-5813
▁chec	-5814
6&#160;</	-5815
▁opportun	-5816
emi	-5817
:4.0	-5818
▁Sol	-5819
OTYy	-5820
YjZi	-5821
:100%">2021</	-5822
224	-5823
ZmMz	-5824
625	-5825
tained	-5826
▁funding	-5827
ece	-5828
_16	-5829
4"><	-5830
YWNi	-5831
16,	-5832
bservable	-5833
▁decreased	-5834
til	-5835
8&#160;</	-5836
▁European	-5837
33917</	-5838
nia	-5839
NzJi	-5840
trict	-5841
hous	-5842
der	-5843
Held	-5844
MinimumMember	-5845
Up	-5846
▁court	-5847
:2.5	-5848
Gu	-5849
▁el	-5850
▁patent	-5851
0.0	-5852
▁large	-5853
▁selling	-5854
-01-0	-5855
MTBi	-5856
ZDJi	-5857
ocument	-5858
sale	-5859
▁case	-5860
▁without	-5861
:4.693	-5862
_11_3_2019_	-5863
POR	-5864
Line	-5865
YWEy	-5866
xOTk	-5867
Mjkw	-5868
NjVh	-5869
▁senior	-5870
201-	-5871
Repor	-5872
DerivativeAsset	-5873
21"	-5874
vdGFibGU	-5875
LatestFiscalYear	-5876
Calculating	-5877
426	-5878
ODgx	-5879
ZmEw	-5880
">0001633917</	-5881
924	-5882
ODZl	-5883
explicit	-5884
ZTEx	-5885
33%;	-5886
807	-5887
▁conting	-5888
xNjA	-5889
▁purchases	-5890
▁evol	-5891
YmMx	-5892
▁stockholders	-5893
ZjJl	-5894
▁manufactur	-5895
YWJsZXJhbmdlOjA	-5896
way	-5897
YmFi	-5898
MDVh	-5899
MGFl	-5900
1"><	-5901
="3	-5902
sts	-5903
griculture	-5904
tNy	-5905
▁Cali	-5906
MDRk	-5907
Zjcx	-5908
6"><	-5909
ateri	-5910
sel	-5911
Elimin	-5912
NWEy	-5913
▁disclosure	-5914
▁restrictions	-5915
MTZh	-5916
AssetValue	-5917
424	-5918
NTVi	-5919
4&#160;</	-5920
MjFm	-5921
MWIw	-5922
NDRk	-5923
NzNj	-5924
▁facility	-5925
Investee	-5926
RNA	-5927
201812	-5928
epsiCo	-5929
▁days	-5930
Expenses	-5931
YTEz	-5932
▁Iran	-5933
▁vacc	-5934
▁dil	-5935
▁00;	-5936
YWJsZXJhbmdlOmE	-5937
▁bott	-5938
▁entities	-5939
▁receive	-5940
;">7	-5941
▁25	-5942
ping	-5943
StatementClassOf	-5944
▁effici	-5945
gi	-5946
OWRm	-5947
Zjhm	-5948
NTlh	-5949
stream	-5950
▁announ	-5951
▁fourth	-5952
NDVi	-5953
ODIy	-5954
emark	-5955
EvZnJhZzp	-5956
:11.6	-5957
▁designated	-5958
bilities	-5959
▁fluctuations	-5960
YWJsZXJhbmdlOmY	-5961
▁innov	-5962
average	-5963
▁CONSOLIDATED	-5964
MDBi	-5965
Lessee	-5966
inher	-5967
jOmY	-5968
easurement	-5969
xMzY	-5970
fornia	-5971
NzZh	-5972
ilitary	-5973
▁policy	-5974
DebtM	-5975
168</	-5976
OGVlNGY	-5977
OTBkZDc	-5978
ZTRiZWE	-5979
▁link	-5980
NmIxOWU	-5981
▁highly	-5982
vailability	-5983
157	-5984
118	-5985
">10,	-5986
NTFi	-5987
land	-5988
YTNkZV	-5989
▁Trans	-5990
▁cannot	-5991
▁counter	-5992
Marketable	-5993
▁Additionally	-5994
YWIw	-5995
MGRkNzVhM	-5996
NjQxMmRm	-5997
inion	-5998
ordin	-5999
NDEyZGY	-6000
Act	-6001
▁air	-6002
▁window	-6003
YmVhOGVlNGY	-6004
ire	-6005
ODdi	-6006
YmQy	-6007
ught	-6008
GroupAxis	-6009
▁Ass	-6010
▁competition	-6011
PAR	-6012
▁currencies	-6013
xODc	-6014
▁decline	-6015
399	-6016
▁attr	-6017
3%"/><	-6018
NTFm	-6019
▁appropriate	-6020
NjQxMmRmNmIxOWU	-6021
-22	-6022
aur	-6023
229,1);	-6024
ODVh	-6025
-99	-6026
xNjk	-6027
ranty	-6028
▁resol	-6029
▁several	-6030
▁Deere	-6031
(229,229,	-6032
601_	-6033
:1.38	-6034
▁UK	-6035
286	-6036
▁event	-6037
▁Po	-6038
YmJh	-6039
▁tak	-6040
▁back	-6041
_10_30_2022_	-6042
NzYy	-6043
YTFl	-6044
▁issu	-6045
xNzI	-6046
OTAz	-6047
than	-6048
orea	-6049
YWJsZXJhbmdlOmU	-6050
▁Firm	-6051
(229,229,229,1);	-6052
214	-6053
Zjhj	-6054
327	-6055
ctMS	-6056
89</	-6057
Coll	-6058
kO	-6059
26-	-6060
OGMy	-6061
ZTUx	-6062
YWZh	-6063
▁established	-6064
▁Invest	-6065
:10.3	-6066
814	-6067
International	-6068
▁Syri	-6069
001	-6070
▁take	-6071
▁dollars	-6072
▁comb	-6073
231	-6074
Time	-6075
YWUz	-6076
NDhh	-6077
NTEz	-6078
▁reduced	-6079
YmVj	-6080
ZGVh	-6081
▁depreciation	-6082
CH	-6083
VmOD	-6084
ZjRm	-6085
▁initiatives	-6086
▁Cost	-6087
NjBh	-6088
hevron	-6089
echnology	-6090
▁import	-6091
▁transfer	-6092
RepaymentsOf	-6093
abe	-6094
▁accounted	-6095
ZWFl	-6096
Id	-6097
YWRi	-6098
▁Government	-6099
YTQy	-6100
ZjNh	-6101
posits	-6102
▁diffic	-6103
▁greater	-6104
▁bar	-6105
....	-6106
MWJl	-6107
-2"><	-6108
14139	-6109
:#00497	-6110
▁ly	-6111
;">4,	-6112
:40	-6113
JlZ	-6114
YzFj	-6115
17,	-6116
Bank	-6117
▁modi	-6118
▁needs	-6119
SeniorNotesDue	-6120
urities	-6121
lvb	-6122
YTAz	-6123
707	-6124
▁accumulated	-6125
20191229-	-6126
COLL	-6127
:100%">2024</	-6128
▁fuel	-6129
MDJl	-6130
tents	-6131
-12-30</	-6132
▁prob	-6133
Pal	-6134
dHJlZ	-6135
Automotive	-6136
APSE	-6137
▁moni	-6138
MTkw	-6139
ZTRm	-6140
Sup	-6141
ics	-6142
_10_31_2021_	-6143
151	-6144
Input	-6145
">3</	-6146
▁LL	-6147
NWEx	-6148
▁Par	-6149
OTdm	-6150
COLLAPSE	-6151
Ford	-6152
▁2014	-6153
wnership	-6154
NmQx	-6155
▁different	-6156
-60	-6157
MjIz	-6158
Contracts	-6159
912	-6160
0;</	-6161
xNTc	-6162
See	-6163
825	-6164
99%;	-6165
MzVk	-6166
YWIy	-6167
dur	-6168
ZmVk	-6169
:0.530%"/><	-6170
▁100	-6171
Settlements	-6172
▁adverti	-6173
▁Global	-6174
HedgingMember	-6175
▁impacts	-6176
xMTg	-6177
▁crude	-6178
holder	-6179
January	-6180
:100%">2020</	-6181
vdGFibGVyYW	-6182
ernal	-6183
nding	-6184
▁prevent	-6185
486	-6186
ry	-6187
xMzA	-6188
ndemic	-6189
nobservable	-6190
NTRi	-6191
▁inst	-6192
ReceivableMember	-6193
ZTQx	-6194
MDcx	-6195
IKE	-6196
ZDMz	-6197
OTQw	-6198
;">6	-6199
aged	-6200
▁operational	-6201
YTNj	-6202
▁achieve	-6203
▁multiple	-6204
_11_2_	-6205
YWJsZXJhbmdlOjI	-6206
▁check	-6207
ODAw	-6208
▁Assets	-6209
zations	-6210
Zjdm	-6211
EmployeeStock	-6212
7"><	-6213
ecd	-6214
OWVm	-6215
_-	-6216
▁discussion	-6217
esignated	-6218
:31	-6219
ZTBh	-6220
xMjc	-6221
▁6%;	-6222
▁General	-6223
market	-6224
SO	-6225
OWEy	-6226
▁adjustment	-6227
NGMz	-6228
Nond	-6229
▁geograp	-6230
xOD	-6231
="12	-6232
ZDRiY	-6233
Management	-6234
-14"	-6235
MDBj	-6236
-88	-6237
2025	-6238
ists	-6239
11"	-6240
MGEz	-6241
America	-6242
▁adoption	-6243
timate	-6244
664	-6245
Development	-6246
▁directly	-6247
▁reflec	-6248
LoansAnd	-6249
colo	-6250
NWYz	-6251
Mg	-6252
▁sur	-6253
▁hedging	-6254
429	-6255
edb	-6256
Indef	-6257
▁providers	-6258
129"	-6259
65</	-6260
YjRk	-6261
gs	-6262
sidiary	-6263
:128%"><	-6264
.900%"/><	-6265
16"	-6266
▁Plans	-6267
▁majority	-6268
Security	-6269
▁International	-6270
219	-6271
MTFi	-6272
YWZk	-6273
Includ	-6274
PART	-6275
▁necessary	-6276
Energy	-6277
367	-6278
ODUz	-6279
MGFhL	-6280
Resulting	-6281
ZDFj	-6282
ZDVi	-6283
ZjFj	-6284
RO	-6285
ZDli	-6286
▁ily	-6287
▁orig	-6288
MWYy	-6289
MmYyY	-6290
▁devices	-6291
YWJsZXJhbmdlOjc	-6292
824	-6293
xNTQ	-6294
ZTZiMGFhL	-6295
Unobservable	-6296
41%;	-6297
OWQy	-6298
LTctMS	-6299
illips	-6300
OGFm	-6301
YjBhYV	-6302
MjllYTI	-6303
▁pandemic	-6304
MjRkZGI	-6305
YTUyYzQ	-6306
▁California	-6307
MmFm	-6308
jOmJk	-6309
MTIz	-6310
NzYxNGU	-6311
MDkw	-6312
▁mily	-6313
CreditMember	-6314
_10_29_2023_	-6315
MmJi	-6316
▁olor	-6317
NGJjYzQ	-6318
NDQyOWVh	-6319
:#0071	-6320
119	-6321
46</	-6322
Loan	-6323
utory	-6324
YWJsZXJhbmdlOjM	-6325
▁availability	-6326
ordinary	-6327
NlYzpiZDRiY	-6328
eria	-6329
:-13.5	-6330
NWZj	-6331
YzEz	-6332
-67	-6333
RiNTRh	-6334
ZGRiNzYxNGU	-6335
xA	-6336
485	-6337
AssetClass	-6338
YzVhNDQyOWVh	-6339
BU	-6340
MmVk	-6341
▁address	-6342
Exercise	-6343
▁District	-6344
fami	-6345
8"></	-6346
jOmJkNGJjYzQ	-6347
fav	-6348
OTgw	-6349
FromA	-6350
▁damages	-6351
NmYzL	-6352
="4	-6353
jOjUy	-6354
InterestExpense	-6355
MGIwYWE	-6356
ZGUwMDNi	-6357
NTJi	-6358
NmEz	-6359
Yjhm	-6360
▁overall	-6361
)&#160;	-6362
ZDQwYjBh	-6363
inciples	-6364
818	-6365
▁must	-6366
anchi	-6367
IyNjQx	-6368
▁amily	-6369
NGRk	-6370
▁patents	-6371
IyNjQxN	-6372
▁MT	-6373
AssetClassAxis	-6374
ResultingFrom	-6375
▁ent	-6376
ZGUwMDNiNmYzL	-6377
NThm	-6378
dequ	-6379
ZjJjYjI	-6380
aturities	-6381
▁communic	-6382
380	-6383
NTRh	-6384
NjMw	-6385
/21344	-6386
NGRlMD	-6387
Litigation	-6388
ZDQwYjBhYTUyYzQ	-6389
140	-6390
AzYjZmM	-6391
-96	-6392
135	-6393
▁swap	-6394
jOjUyZjJjYjI	-6395
North	-6396
OutOf	-6397
">8	-6398
986	-6399
fba	-6400
▁measured	-6401
▁incentives	-6402
908	-6403
VmY	-6404
May	-6405
OTRh	-6406
▁Mexic	-6407
326	-6408
:100%;">	-6409
YjMw	-6410
YmZh	-6411
▁audits	-6412
fficient	-6413
ebf	-6414
iable	-6415
rite	-6416
Director	-6417
NGRlMDAzYjZmM	-6418
31_2018_	-6419
▁balances	-6420
▁commodity	-6421
quid	-6422
ats	-6423
9"><	-6424
prise	-6425
▁expectations	-6426
OGZi	-6427
▁Level	-6428
ZTJk	-6429
">-</	-6430
▁windowtext	-6431
Gains	-6432
▁incid	-6433
801	-6434
oco	-6435
18,	-6436
ework	-6437
280	-6438
xNT	-6439
NGUy	-6440
▁police	-6441
YzEx	-6442
Rep	-6443
▁renew	-6444
MTUx	-6445
atutory	-6446
YWJsZXJhbmdlOjE	-6447
NGJm	-6448
▁lor	-6449
▁reali	-6450
YmUx	-6451
▁vend	-6452
▁responsible	-6453
lam	-6454
FundsMember	-6455
iL	-6456
▁next	-6457
▁Corporate	-6458
ene	-6459
▁Oracle	-6460
amework	-6461
arryforwards	-6462
CO	-6463
YzJl	-6464
PaymentsFor	-6465
84</	-6466
xNDU	-6467
Exten	-6468
▁guidance	-6469
▁relative	-6470
max	-6471
YjJj	-6472
▁2020</	-6473
_15	-6474
YTlk	-6475
nical	-6476
▁drug	-6477
:11%;"></	-6478
Real	-6479
▁East	-6480
470	-6481
Nonoperating	-6482
▁hi	-6483
54315	-6484
cash	-6485
NmZi	-6486
pure	-6487
NTlj	-6488
▁2015,	-6489
;">10.	-6490
▁retain	-6491
▁Refer	-6492
▁engine	-6493
YjFj	-6494
spec	-6495
&#32;	-6496
▁website	-6497
▁Korea	-6498
Information	-6499
vdGV	-6500
▁human	-6501
864	-6502
MTkz	-6503
yMDg	-6504
956	-6505
MTRk	-6506
▁adjusted	-6507
▁York	-6508
▁working	-6509
▁South	-6510
Cumulative	-6511
YWJsZXJhbmdlOjY	-6512
NDFk	-6513
1&#160;</	-6514
▁credits	-6515
▁clos	-6516
MDhi	-6517
▁Quarter	-6518
▁Results	-6519
-69	-6520
MzRm	-6521
jOmE	-6522
:10%;"></	-6523
ZjVm	-6524
ZjMy	-6525
.1</	-6526
vant	-6527
▁emer	-6528
▁Class	-6529
ield	-6530
Ext	-6531
21%;	-6532
▁trading	-6533
linical	-6534
ZTVh	-6535
▁conc	-6536
MWYw	-6537
▁Any	-6538
▁Non	-6539
▁active	-6540
▁volatility	-6541
rae	-6542
▁adequ	-6543
%,	-6544
▁iv	-6545
▁component	-6546
OQ	-6547
▁areas	-6548
▁personal	-6549
ZGFh	-6550
▁Services	-6551
GAAP	-6552
NWYy	-6553
▁how	-6554
ingle	-6555
raeli	-6556
▁participa	-6557
ku	-6558
;">&#160;%</	-6559
icro	-6560
▁directors	-6561
26,	-6562
ircraft	-6563
Products	-6564
ZmRj	-6565
>2025-01-01</	-6566
Yzhm	-6567
LineOf	-6568
▁broad	-6569
dical	-6570
543151</	-6571
▁transition	-6572
405	-6573
JhOGM	-6574
▁restructuring	-6575
LO	-6576
EyYj	-6577
▁2023</	-6578
NDdj	-6579
;">.</	-6580
▁sheets	-6581
▁John	-6582
▁Program	-6583
GrantDate	-6584
">7,	-6585
NetAssetValue	-6586
DebtMaturities	-6587
bed	-6588
▁reflected	-6589
xMj	-6590
▁accom	-6591
:100%">3,	-6592
329	-6593
NDEz	-6594
▁anticipated	-6595
▁16	-6596
NGYx	-6597
▁indi	-6598
ZjNj	-6599
▁models	-6600
">0001543151</	-6601
▁ownership	-6602
Local	-6603
▁trial	-6604
2022010	-6605
▁Me	-6606
▁capabilities	-6607
Selling	-6608
Derivatives	-6609
ZGJi	-6610
▁worldwide	-6611
ism	-6612
oc	-6613
xMTI	-6614
xOTA	-6615
looking	-6616
Phillips	-6617
:1.0%;"></	-6618
ral	-6619
Yjkz	-6620
MDQz	-6621
NTIw	-6622
▁dollar	-6623
0.01	-6624
▁tre	-6625
▁around	-6626
ZDRmNm	-6627
▁authorized	-6628
Mem	-6629
▁equ	-6630
630	-6631
▁sched	-6632
-01-31</	-6633
▁head	-6634
331	-6635
MTRi	-6636
MTVlN	-6637
NDliN	-6638
bba	-6639
YzIz	-6640
YjZkODk	-6641
Nzkw	-6642
▁evaluating	-6643
▁3,	-6644
▁2024</	-6645
699	-6646
▁Americ	-6647
03"	-6648
YmNiNWU	-6649
-12-29</	-6650
ZDRmNmViY	-6651
MGUx	-6652
ZGZj	-6653
NTBhZGI	-6654
ZDkxNWU	-6655
xL	-6656
MGFkYjZkODk	-6657
▁Mo	-6658
andi	-6659
Fr	-6660
istan	-6661
NGZh	-6662
▁2022</	-6663
ZTczZjdi	-6664
▁climate	-6665
YzRj	-6666
surance	-6667
ZjZlYmNiNWU	-6668
:3.0	-6669
MDZi	-6670
YWJsZXJhbmdlOmM	-6671
166	-6672
msft	-6673
MTcw	-6674
NTRk	-6675
YmIx	-6676
NlYzplNTBhZGI	-6677
▁second	-6678
ZGRj	-6679
▁1.5	-6680
ired	-6681
cca	-6682
MWFmOD	-6683
bec	-6684
907	-6685
MwMjY	-6686
▁executive	-6687
▁effectively	-6688
NTky	-6689
▁MS	-6690
▁Ro	-6691
uarial	-6692
▁Registrant	-6693
ZTczZjdiZDkxNWU	-6694
Earning	-6695
ization	-6696
MDll	-6697
ZGFi	-6698
favorable	-6699
All	-6700
804	-6701
Yjcw	-6702
32;</	-6703
▁viol	-6704
head	-6705
MGVk	-6706
YThjN	-6707
ousands	-6708
445	-6709
yMDU	-6710
▁last	-6711
▁#0093	-6712
▁measure	-6713
386	-6714
MWMz	-6715
QxNzU	-6716
ZmRhL	-6717
▁processing	-6718
▁recognition	-6719
NTRmYjA	-6720
NmYx	-6721
▁labor	-6722
▁function	-6723
▁free	-6724
AdjustmentMember	-6725
▁EU	-6726
YTEyZWM	-6727
ominated	-6728
▁award	-6729
InstrumentMember	-6730
MTkxYWY	-6731
ODRl	-6732
▁India	-6733
YjhjNDYy	-6734
▁institutions	-6735
MmZkYV	-6736
▁toRefs	-6737
MTJlYzc	-6738
NGZiMDk	-6739
Vested	-6740
jOjUwY	-6741
NetInvestment	-6742
500	-6743
NlYzpjMTE	-6744
_0001163165"	-6745
▁typically	-6746
MGNhOTdj	-6747
▁fromRefs	-6748
044	-6749
jOmMxMTkxYWY	-6750
NTER	-6751
YzVhMTJlYzc	-6752
YjhjNDYyZmRhL	-6753
MWFmODQxNzU	-6754
▁separ	-6755
">0001730	-6756
MeasurementInput	-6757
▁unrecognized	-6758
NGJh	-6759
Yzhk	-6760
MGNhOTdjMDI	-6761
ority	-6762
ZjRj	-6763
YTgx	-6764
OTNiYThjN	-6765
>2018-01-01</	-6766
▁real	-6767
▁permit	-6768
:9%;"></	-6769
YWJsZXJhbmdlOjQ	-6770
-98	-6771
3"></	-6772
urf	-6773
YjUx	-6774
▁uni	-6775
▁;"><	-6776
▁protect	-6777
744	-6778
ZGMy	-6779
▁Factors	-6780
▁store	-6781
">0001730168</	-6782
EarningsMember	-6783
bab	-6784
19,	-6785
">12	-6786
944	-6787
YjNj	-6788
eath	-6789
ering	-6790
Provid	-6791
▁2016</	-6792
ZjAw	-6793
▁continuing	-6794
_14	-6795
Backed	-6796
▁Internal	-6797
PaymentsDue	-6798
denture	-6799
▁enforce	-6800
:120%">202	-6801
▁ship	-6802
▁compete	-6803
ZDRh	-6804
YTcx	-6805
YzQz	-6806
';">$</	-6807
Guaran	-6808
estry	-6809
27,	-6810
▁firm	-6811
_10_27	-6812
NmFl	-6813
Items	-6814
Nonvested	-6815
415	-6816
▁translation	-6817
524	-6818
▁participan	-6819
ZGQy	-6820
ZWVh	-6821
9&#160;</	-6822
Revolving	-6823
ucks	-6824
40316	-6825
NmEy	-6826
▁privacy	-6827
ian	-6828
▁Cons	-6829
MTFlNjQ	-6830
747	-6831
YTEx	-6832
YjBlL	-6833
:-2.	-6834
MWIwZV	-6835
ATION	-6836
▁until	-6837
69</	-6838
ZTExZTY	-6839
047	-6840
ZWNh	-6841
234	-6842
_10_27_2024_	-6843
MQ	-6844
929	-6845
NjAx	-6846
NzhlNjll	-6847
ZGJk	-6848
434	-6849
MWVj	-6850
ODcxMmJh	-6851
OWNm	-6852
▁Sub	-6853
▁ul	-6854
YWIxYjBlL	-6855
▁mRNA	-6856
MTJiYTBi	-6857
▁PepsiCo	-6858
MGFiMWIwZV	-6859
▁manufacturers	-6860
▁HE	-6861
/2019	-6862
dition	-6863
▁satis	-6864
84%;	-6865
Life	-6866
ocoPhillips	-6867
NzhlNjllMTFlNjQ	-6868
▁clo	-6869
▁summar	-6870
▁mix	-6871
▁Cloud	-6872
▁Mat	-6873
eaa	-6874
NTBk	-6875
YjVk	-6876
AndAd	-6877
MDVj	-6878
xNzg	-6879
174;</	-6880
ODcxMmJhMGIw	-6881
mb	-6882
abon	-6883
ished	-6884
Industry	-6885
Excluded	-6886
12%;	-6887
1700;	-6888
income	-6889
bdf	-6890
xMzM	-6891
▁produ	-6892
Identif	-6893
MzIy	-6894
MWRl	-6895
▁useful	-6896
vement	-6897
406	-6898
bbc	-6899
YzNj	-6900
ZWFh	-6901
▁five	-6902
Yzky	-6903
PR	-6904
▁Further	-6905
115	-6906
YWJsZXJhbmdlOmQ	-6907
▁orders	-6908
NGQw	-6909
▁marketable	-6910
▁advertising	-6911
NjZk	-6912
eae	-6913
itig	-6914
onomy	-6915
▁near	-6916
833	-6917
Ado	-6918
';"><	-6919
hd	-6920
395	-6921
Sabon	-6922
▁Market	-6923
:120%">&#	-6924
▁NIKE	-6925
Amounts	-6926
/2019-01-31"	-6927
='	-6928
oted	-6929
▁nature	-6930
NWZl	-6931
Borrow	-6932
ession	-6933
▁quarterly	-6934
ustries	-6935
uts	-6936
ZmZj	-6937
▁sen	-6938
lesale	-6939
OTIx	-6940
alls	-6941
▁ical	-6942
▁like	-6943
:100%">4.	-6944
ZTRl	-6945
001</	-6946
lain	-6947
▁military	-6948
▁technical	-6949
10"	-6950
YjNl	-6951
anging	-6952
464	-6953
sted	-6954
ZDRi	-6955
:11.25	-6956
Subject	-6957
YWQw	-6958
2"></	-6959
arcrole	-6960
▁political	-6961
▁day	-6962
▁altern	-6963
MDFl	-6964
emn	-6965
each	-6966
400	-6967
▁2,	-6968
Wt	-6969
porary	-6970
▁2021</	-6971
635	-6972
afd	-6973
413	-6974
:8%;"></	-6975
216	-6976
Reporting	-6977
ZGNi	-6978
Grants	-6979
28-	-6980
NDAz	-6981
▁rap	-6982
dce	-6983
CM	-6984
ZWUy	-6985
▁developed	-6986
clu	-6987
YTcy	-6988
Agriculture	-6989
21,	-6990
>%</	-6991
ZmJh	-6992
▁paper	-6993
iss	-6994
def	-6995
NjZi	-6996
MeasuredAt	-6997
88_	-6998
xMjQ	-6999
▁intro	-7000
AndLiabilities	-7001
ODEx	-7002
jo	-7003
817	-7004
Yjhk	-7005
▁ground	-7006
▁linkRole	-7007
afe	-7008
▁arcrole	-7009
Deple	-7010
▁dividend	-7011
379	-7012
OGQz	-7013
014	-7014
OTJk	-7015
MzRi	-7016
Yjdm	-7017
356	-7018
654	-7019
jOjVk	-7020
Fraction	-7021
AccumulatedGross	-7022
YWMz	-7023
-12-28</	-7024
OGIx	-7025
YWFl	-7026
ne	-7027
239	-7028
▁monitor	-7029
OGJi	-7030
YTRi	-7031
ney	-7032
Njkz	-7033
aterial	-7034
ick	-7035
▁registered	-7036
▁opportunities	-7037
▁SU	-7038
">8,	-7039
-06-01</	-7040
▁RE	-7041
▁points	-7042
ProfitLoss	-7043
:0%;"><	-7044
▁decision	-7045
▁aircraft	-7046
▁announced	-7047
-06-30</	-7048
▁Le	-7049
aO	-7050
gth	-7051
18"	-7052
▁bu	-7053
▁evaluate	-7054
▁favorable	-7055
OGMz	-7056
▁HEIGHT	-7057
ognition	-7058
▁channel	-7059
▁Ne	-7060
Face	-7061
">&#174;</	-7062
abc	-7063
OWVj	-7064
ZmUz	-7065
ZU	-7066
_19	-7067
YzNh	-7068
347	-7069
ZDhh	-7070
:100%">4	-7071
NzVj	-7072
MGZi	-7073
edBy	-7074
▁analysis	-7075
MDIx	-7076
enty	-7077
▁users	-7078
▁primary	-7079
fdb	-7080
sitive	-7081
▁every	-7082
▁variable	-7083
ortgage	-7084
ZDdh	-7085
SA	-7086
NmRh	-7087
yND	-7088
lared	-7089
ZmZh	-7090
20200927"	-7091
:#333333;	-7092
though	-7093
NDBk	-7094
sizing	-7095
RQ	-7096
79634	-7097
fda	-7098
▁Analysis	-7099
tg	-7100
176	-7101
▁contributions	-7102
YWJsZXJhbmdlOjd	-7103
▁GM	-7104
plic	-7105
209	-7106
iration	-7107
beb	-7108
OTFi	-7109
▁collateral	-7110
YWJsZXJhbmdlOmI	-7111
;">2015</	-7112
305	-7113
▁Sales	-7114
▁Operating	-7115
▁|	-7116
▁opinion	-7117
▁did	-7118
MmVjN	-7119
884	-7120
▁lawsuit	-7121
Coun	-7122
▁said	-7123
▁During	-7124
-38	-7125
ZjBh	-7126
vertica	-7127
ZmJj	-7128
ols	-7129
CurrentPeriod	-7130
ton	-7131
NzMx	-7132
MDEx	-7133
MjZi	-7134
StatementOf	-7135
xb	-7136
9744	-7137
ZmNDlh	-7138
▁timely	-7139
achinery	-7140
▁ertical	-7141
MzQz	-7142
319	-7143
NThh	-7144
▁sources	-7145
870	-7146
">14	-7147
▁rtical	-7148
▁developing	-7149
MmRi	-7150
NmEx	-7151
▁principles	-7152
▁uncertainties	-7153
374	-7154
66%;	-7155
▁served	-7156
Amortized	-7157
ZDQy	-7158
alty	-7159
OfBusiness	-7160
ffc	-7161
.2</	-7162
▁goods	-7163
StateAnd	-7164
xMDY	-7165
▁Capital	-7166
194	-7167
;">4.	-7168
▁storage	-7169
71%;	-7170
SubjectTo	-7171
360	-7172
MzBi	-7173
FaceAmount	-7174
tice	-7175
34%;">	-7176
eductions	-7177
En	-7178
jpm	-7179
▁now	-7180
YmFk	-7181
2%"/><	-7182
▁fil	-7183
▁minimum	-7184
DepletionAnd	-7185
NzMy	-7186
">4</	-7187
Authorized	-7188
MzVi	-7189
▁INC	-7190
984	-7191
OTRl	-7192
250	-7193
FhNj	-7194
ZjQw	-7195
▁fle	-7196
ET	-7197
MDVl	-7198
397	-7199
-70	-7200
NWNj	-7201
141391</	-7202
ParentMember	-7203
JhNzU	-7204
escription	-7205
▁Col	-7206
▁officers	-7207
318605</	-7208
:5.5	-7209
NmJj	-7210
ZmVh	-7211
▁single	-7212
▁calcul	-7213
:120%">$<	-7214
▁incentive	-7215
YjRlMD	-7216
▁(<	-7217
MzMw	-7218
Zjll	-7219
▁tical	-7220
▁proceeds	-7221
LQ	-7222
gW	-7223
abf	-7224
InvesteeNameAxis	-7225
NzUw	-7226
599	-7227
">0001141391</	-7228
390	-7229
ault	-7230
▁Ado	-7231
NlYzplZj	-7232
25,	-7233
Tech	-7234
ecial	-7235
▁evaluation	-7236
▁taken	-7237
WithUnobservable	-7238
NGFj	-7239
llig	-7240
StateAndLocal	-7241
estated	-7242
BQ	-7243
">0001318605</	-7244
PlanPlanAssets	-7245
YzZj	-7246
ime	-7247
UsedIn	-7248
880	-7249
GUT	-7250
NjRi	-7251
477	-7252
UxYTQ	-7253
:0.71%;	-7254
cussion	-7255
xMzk	-7256
ODkyM	-7257
JjMD	-7258
▁World	-7259
Customers	-7260
▁relevant	-7261
MWYz	-7262
ZThhL	-7263
▁site	-7264
0024	-7265
XzIw	-7266
GUTTER	-7267
InterestMember	-7268
70</	-7269
▁food	-7270
sity	-7271
▁team	-7272
ZDQxMDk	-7273
▁providing	-7274
cbf	-7275
;">5,	-7276
ODhhNDY	-7277
NTViZTA	-7278
549	-7279
fcc	-7280
VmMzY	-7281
▁measurement	-7282
VjM	-7283
Mzkz	-7284
gress	-7285
MTRlZTU	-7286
▁adopted	-7287
YmUwODkyM	-7288
OTIzZDQxMDk	-7289
▁susp	-7290
&#32;&#32;	-7291
701_	-7292
YzAw	-7293
YThhY	-7294
YTRjMz	-7295
GUTTERGRID	-7296
-92	-7297
xOTY	-7298
▁fully	-7299
IndefiniteLived	-7300
NTQy	-7301
YjQx	-7302
▁comparable	-7303
▁concer	-7304
ZjhjMmQz	-7305
▁sufficient	-7306
Min	-7307
YWYw	-7308
vertic	-7309
YjQyNGU	-7310
NjdiL	-7311
▁loan	-7312
YWNiYTc	-7313
aled	-7314
ZjJmOGMy	-7315
-83	-7316
350	-7317
YzRm	-7318
NzQx	-7319
OTUz	-7320
yMT	-7321
ODVi	-7322
gtMS	-7323
ZDMwOTAz	-7324
PlanExpected	-7325
ede	-7326
MWVk	-7327
YmNm	-7328
ZjNlY	-7329
▁resulted	-7330
jOjExYThhY	-7331
▁z	-7332
ZDQz	-7333
xNzU	-7334
▁agencies	-7335
NjkwMTRlZTU	-7336
-15"	-7337
95</	-7338
MjRlOGYy	-7339
NDIw	-7340
NDll	-7341
MDkwMzY	-7342
NTVm	-7343
ZWQyZWM	-7344
NlYzoxMWE	-7345
▁substantially	-7346
Gn	-7347
cial	-7348
AndAmortization	-7349
▁repurchases	-7350
edByUsedIn	-7351
bad	-7352
VjYWI	-7353
">9,	-7354
atures	-7355
160	-7356
▁System	-7357
269	-7358
34,	-7359
Nzgx	-7360
time	-7361
▁external	-7362
▁Sp	-7363
YTYz	-7364
CENTER	-7365
403161</	-7366
ZDMwOTAzNjdiL	-7367
TS	-7368
MjRlOGYyZjhjMmQz	-7369
lNWM	-7370
Nondesignated	-7371
554	-7372
tish	-7373
▁matter	-7374
If	-7375
CashProvid	-7376
YWJsZXJhbmdlOjU	-7377
▁vary	-7378
YD	-7379
▁located	-7380
▁maturities	-7381
YjQzNV	-7382
MWFhYTM	-7383
Mjkz	-7384
izes	-7385
YWFhMzli	-7386
">0001403161</	-7387
-0-	-7388
rit	-7389
Assumed	-7390
YTliNDM	-7391
▁approval	-7392
▁accompany	-7393
CarryingValue	-7394
ViNTE	-7395
▁Intel	-7396
NjMwODQ	-7397
300	-7398
▁remedi	-7399
20,	-7400
5"></	-7401
Useful	-7402
jOjdlNWM	-7403
YmVkMmVjN	-7404
:#003087;	-7405
Mzhi	-7406
▁approved	-7407
incorporated	-7408
NDQxYWFhMzli	-7409
▁sy	-7410
▁pack	-7411
▁audi	-7412
itions	-7413
20187</	-7414
yc	-7415
304	-7416
NDJl	-7417
ZDFh	-7418
MzZi	-7419
▁emissions	-7420
">0.	-7421
MzUz	-7422
LTE	-7423
▁licenses	-7424
ZTVjNjMwODQ	-7425
▁shareholders	-7426
894	-7427
▁ens	-7428
▁However	-7429
-82	-7430
eac	-7431
62%;	-7432
▁Related	-7433
FiNGQ	-7434
enture	-7435
▁Benefit	-7436
▁amortized	-7437
nt	-7438
Twenty	-7439
ames	-7440
Excess	-7441
▁compla	-7442
▁disclosures	-7443
600	-7444
atin	-7445
▁brands	-7446
-94	-7447
ZjZj	-7448
ZTdiNj	-7449
ZjJmM	-7450
Unsecured	-7451
ESG	-7452
StatusAxis	-7453
zIz	-7454
▁All	-7455
ZTkzN	-7456
jOjAy	-7457
Domestic	-7458
">0000320187</	-7459
JR	-7460
▁assumed	-7461
xLTY	-7462
▁Chin	-7463
_10_28	-7464
▁target	-7465
ueWt	-7466
ZjlhMjAy	-7467
MDJlN	-7468
fg	-7469
dil	-7470
aOkO	-7471
MTdiMGI	-7472
YzFmOWEy	-7473
hhOV	-7474
raz	-7475
YWRiNT	-7476
audi	-7477
xMDA	-7478
▁Discussion	-7479
▁Di	-7480
OThkYT	-7481
jOjAyZjJmM	-7482
:100%">2	-7483
5"><	-7484
:6.75	-7485
▁deci	-7486
NGNjNV	-7487
▁inher	-7488
MmYyZjNlY	-7489
VjueWt	-7490
YWUyMjg	-7491
AccountsNotes	-7492
ZWFlMjI	-7493
OThi	-7494
▁29,	-7495
OGRhNWI	-7496
YjBiOWJl	-7497
▁#333333;	-7498
▁compu	-7499
▁legis	-7500
:10.9	-7501
zIzaOkO	-7502
▁volumes	-7503
YmMxZjlhMjAy	-7504
Zjky	-7505
1231_	-7506
jOjAx	-7507
NlYzowNTkw	-7508
ZDQxNTli	-7509
lhZGI	-7510
▁discussed	-7511
-50	-7512
ZTdiNjhhOV	-7513
OTBlYWUyMjg	-7514
OThkYTViNTE	-7515
334	-7516
▁civ	-7517
YmZlOTM	-7518
InvestmentBy	-7519
PerShareMember	-7520
618	-7521
YTUz	-7522
MWJlOGY	-7523
November	-7524
YzFmOWEyMDJlN	-7525
OThh	-7526
ural	-7527
▁Ind	-7528
NotesDue	-7529
ZjhmMjE	-7530
▁breach	-7531
PriorServiceCost	-7532
Narr	-7533
MTNhNjA	-7534
YWRiNTEz	-7535
jOjAxYmU	-7536
▁limitations	-7537
385	-7538
ZjUz	-7539
onds	-7540
ZjIxNmE	-7541
▁merchants	-7542
MWNk	-7543
_00000	-7544
Extensible	-7545
-91	-7546
DiscountRate	-7547
▁Certain	-7548
ExercisePrice	-7549
601-	-7550
ReturnOn	-7551
▁manufacture	-7552
ReceivableAxis	-7553
ZWZm	-7554
YjBiOWJlNGNjNV	-7555
YTRjMzlhZGI	-7556
NzRl	-7557
ports	-7558
YTYwNmJm	-7559
NlYzowMmYyZjNlY	-7560
IB	-7561
ZWJl	-7562
▁file	-7563
NWFiNmM	-7564
house	-7565
:21	-7566
YTMwN	-7567
NTYz	-7568
NlYzowMWJlOGY	-7569
ZhMzA	-7570
NmJiYTk	-7571
USGovernment	-7572
ZmFh	-7573
OTQyNzI	-7574
Intersegment	-7575
VH	-7576
Yzlj	-7577
Party	-7578
OTRjOTE	-7579
YTRk	-7580
▁inj	-7581
▁14	-7582
MTNi	-7583
MTZjYTQ	-7584
YTYwNmJmZTkzN	-7585
NmIw	-7586
▁excluding	-7587
dp	-7588
urt	-7589
ying	-7590
MjcyNV	-7591
Yjdh	-7592
▁trademark	-7593
▁accompanying	-7594
YjZjODYy	-7595
▁Israeli	-7596
GrantsInPeriod	-7597
-32	-7598
percent	-7599
YmJhOTQyNzI	-7600
ClassOfFinancing	-7601
OWYw	-7602
▁affiliates	-7603
:32.233%"/><	-7604
bca	-7605
ZjcwYWU	-7606
MGQy	-7607
_2_	-7608
MWJk	-7609
NTMy	-7610
▁round	-7611
MWUy	-7612
adbe	-7613
Global	-7614
▁special	-7615
7&#160;</	-7616
NlYzowOTRjOTE	-7617
▁parts	-7618
MGNhMWE	-7619
YjdiMzA	-7620
OWMxYzBj	-7621
▁specified	-7622
101.	-7623
MjFl	-7624
NzZjL	-7625
ZTRhNjY	-7626
">0000831	-7627
">3.	-7628
ZjJlNGE	-7629
:5.24%;	-7630
VC	-7631
OGJkZTA	-7632
ZWYzNjQ	-7633
ZjViZTc	-7634
-18"	-7635
MGFlOWQ	-7636
jOjZhMzA	-7637
NlYzoyNmI	-7638
OWNl	-7639
▁base	-7640
NTFiZjcwYWU	-7641
NjVhYjZjODYy	-7642
tron	-7643
▁mobile	-7644
▁realized	-7645
YzFjMGNhMWE	-7646
946	-7647
▁Such	-7648
NjZhNDg	-7649
YTFhNGY	-7650
20201227-	-7651
NDkzNzc	-7652
jOjUxYTQ	-7653
YyZTRhNjY	-7654
126	-7655
YmRlMDY	-7656
▁integrated	-7657
YTBh	-7658
OTUxYmY	-7659
">0000831001</	-7660
▁Quarterly	-7661
OTIw	-7662
▁indic	-7663
OTBhNTQ	-7664
NmIy	-7665
NWYzOWMxYzBj	-7666
▁Performance	-7667
218	-7668
▁Long	-7669
885	-7670
yMDI	-7671
▁Uni	-7672
YjMwNjZhNDg	-7673
520	-7674
NzRk	-7675
YjRlMDdi	-7676
828	-7677
fbf	-7678
;">&#32;</	-7679
YTJh	-7680
▁shi	-7681
▁personnel	-7682
;">9	-7683
ODYw	-7684
hysi	-7685
ights	-7686
▁Unic	-7687
expense	-7688
▁Russian	-7689
:1.21%;	-7690
597	-7691
NWIx	-7692
ORPOR	-7693
bur	-7694
">15	-7695
lainti	-7696
00"	-7697
eca	-7698
▁nd	-7699
ZjVh	-7700
elf	-7701
-93	-7702
ddc	-7703
Health	-7704
Notional	-7705
OTBlL	-7706
MTlj	-7707
ison	-7708
▁Rule	-7709
MjkwZV	-7710
▁Unicode	-7711
EN	-7712
ws	-7713
746	-7714
▁probable	-7715
="5"	-7716
▁prec	-7717
▁platforms	-7718
Dh	-7719
tention	-7720
64</	-7721
278	-7722
493	-7723
68%;	-7724
341439</	-7725
YTVhMjFm	-7726
urk	-7727
YyMTUy	-7728
YzQwNzc	-7729
▁Under	-7730
="100%"	-7731
786	-7732
Accrual	-7733
▁killed	-7734
NWEyMWYw	-7735
OTdmMjE	-7736
▁Balance	-7737
▁ine	-7738
fizer	-7739
20210103"	-7740
▁unfavorable	-7741
724	-7742
▁tem	-7743
▁investing	-7744
YTVhMjFmMGI	-7745
aba	-7746
cff	-7747
QU	-7748
88"	-7749
xMDk	-7750
yMTQ	-7751
NDAw	-7752
LTgtMS	-7753
419	-7754
MzQw	-7755
▁online	-7756
ExcludedFrom	-7757
YyMTUyOTBlL	-7758
▁Hold	-7759
505	-7760
436	-7761
▁confid	-7762
_00000340	-7763
ZDZhNWEyMWYw	-7764
▁final	-7765
544	-7766
▁obj	-7767
▁Chevron	-7768
767	-7769
ZDAw	-7770
▁represents	-7771
">0001341439</	-7772
Njdj	-7773
840	-7774
▁There	-7775
▁water	-7776
YjRlMDdiYzQwNzc	-7777
▁Str	-7778
86%;	-7779
▁damage	-7780
308	-7781
969	-7782
YTdi	-7783
9744;</	-7784
:2.4	-7785
Pacific	-7786
NGJi	-7787
ZjNi	-7788
▁While	-7789
MzUx	-7790
▁2025</	-7791
▁Bri	-7792
illar	-7793
▁Common	-7794
▁trends	-7795
PlanAxis	-7796
zn	-7797
ounce	-7798
154	-7799
raud	-7800
NDUz	-7801
NDViL	-7802
▁Revenue	-7803
jOjM	-7804
▁199	-7805
YjFiODI	-7806
anctions	-7807
:12.25	-7808
igible	-7809
▁arising	-7810
▁uses	-7811
illing	-7812
ategory	-7813
▁conduct	-7814
▁sustain	-7815
87722;"><	-7816
NzFh	-7817
zOWI	-7818
OTYxNjgz	-7819
ccc	-7820
▁#000000"><	-7821
▁4.	-7822
▁challenges	-7823
YjRiMWI	-7824
:2.5%;">	-7825
Funds	-7826
MWZjOTU	-7827
▁social	-7828
24,	-7829
▁hy	-7830
▁Award	-7831
▁Africa	-7832
33%"></	-7833
MzQxZmM	-7834
YzExZTI	-7835
:110	-7836
MzFl	-7837
JmNzEw	-7838
Njhi	-7839
ZjcxMGQ	-7840
▁governments	-7841
MjQw	-7842
OTYxNjgzNzQ	-7843
NTEzZl	-7844
ret	-7845
MmMw	-7846
YzIzOTIy	-7847
part	-7848
CostAnd	-7849
▁longer	-7850
VhMTli	-7851
ZDZhZWM	-7852
MjJmNzEw	-7853
▁application	-7854
tdA	-7855
MTNmL	-7856
NlYzozOWI	-7857
>,	-7858
MjRjMjM	-7859
8%"></	-7860
▁press	-7861
01_2019_	-7862
bbf	-7863
▁roy	-7864
▁protest	-7865
_4_	-7866
601	-7867
▁making	-7868
efc	-7869
Lr	-7870
VeA	-7871
NWMz	-7872
YTIy	-7873
ythe	-7874
OTZjMTFl	-7875
▁testing	-7876
jOjVhMTli	-7877
Qn	-7878
Off	-7879
nZTo	-7880
YWVjNTEzZl	-7881
NzZhOTYxNjgzNzQ	-7882
)&	-7883
275	-7884
▁Be	-7885
NDgw	-7886
millions	-7887
OTFm	-7888
tESG	-7889
:12.0	-7890
▁child	-7891
YzIzOTIyZjcxMGQ	-7892
InCapitalMember	-7893
389	-7894
ZGMz	-7895
;">202	-7896
dde	-7897
394	-7898
AmortizationOf	-7899
928	-7900
-16"	-7901
36%;	-7902
Njdm	-7903
▁generated	-7904
MjJmNzEwZDZhZWM	-7905
:128%">&#160;</	-7906
yMjA	-7907
gWtdA	-7908
▁crit	-7909
UsefulLife	-7910
YmMw	-7911
dbbVeA	-7912
ZjZm	-7913
han	-7914
MGZj	-7915
▁official	-7916
GeneralAndAd	-7917
OTZjMTFlMjRjMjM	-7918
220	-7919
226	-7920
active	-7921
MTZk	-7922
8043	-7923
▁governmental	-7924
NTUy	-7925
▁GAAP	-7926
ythegWtdA	-7927
YWJsZXJhbmdlOjg	-7928
NetGainLoss	-7929
ebb	-7930
▁ns	-7931
NmRk	-7932
▁unrealized	-7933
MzVj	-7934
ODNh	-7935
Sold	-7936
▁regular	-7937
MTMw	-7938
ZWMz	-7939
Minority	-7940
ZThk	-7941
rd	-7942
Prepaid	-7943
▁15,	-7944
661	-7945
▁accelerated	-7946
OTRi	-7947
ZWZk	-7948
NetCashProvid	-7949
MDMx	-7950
▁offering	-7951
OTQxN	-7952
-10-01</	-7953
CT	-7954
">13,	-7955
▁Mexico	-7956
770	-7957
&#160;1,	-7958
947	-7959
▁disclo	-7960
20191228"	-7961
dba	-7962
ODkx	-7963
ZDJk	-7964
▁even	-7965
">(2)</	-7966
▁Energy	-7967
PA	-7968
▁BORDER	-7969
Ca	-7970
167	-7971
OTdl	-7972
_0"></	-7973
ertific	-7974
▁defend	-7975
▁geographic	-7976
▁Z	-7977
▁ASU	-7978
▁margins	-7979
.6</	-7980
2%"></	-7981
emption	-7982
▁complete	-7983
_25	-7984
349	-7985
800	-7986
▁lives	-7987
YyYWY	-7988
▁criteria	-7989
xMTU	-7990
▁Public	-7991
:1.06%;">	-7992
387	-7993
:7%;"></	-7994
adc	-7995
NjFmMzU	-7996
▁barrel	-7997
vo	-7998
22,	-7999
mer	-8000
MDEwL	-8001
▁treat	-8002
Collateral	-8003
_1_1_	-8004
bff	-8005
ODAxMF	-8006
NjBhZDEw	-8007
YTJi	-8008
valent	-8009
OTYxZjM	-8010
▁2015</	-8011
MDdh	-8012
2021100	-8013
▁Chinese	-8014
Log	-8015
Nzcw	-8016
QzMG	-8017
YzZk	-8018
NjQwNWU	-8019
NlYzpjNzlk	-8020
clear	-8021
▁train	-8022
MGFkMTA	-8023
605	-8024
OGVkNjkz	-8025
Positions	-8026
MWEz	-8027
NjAw	-8028
▁2012	-8029
onounce	-8030
▁clinical	-8031
▁involved	-8032
ZDNj	-8033
xLTM	-8034
Mjdj	-8035
emed	-8036
:0.532	-8037
▁reb	-8038
YmQx	-8039
:0.39%;	-8040
Executive	-8041
OTNiNjQwNWU	-8042
MDVlOTYxZjM	-8043
OGIy	-8044
Insurance	-8045
290	-8046
OTRm	-8047
JiOTlk	-8048
▁Proxy	-8049
enchmark	-8050
OGVkNjkzYjY	-8051
NjBhZDEwODAxMF	-8052
MTRh	-8053
:11.0	-8054
NWJl	-8055
▁impo	-8056
OGVi	-8057
ator	-8058
NGFmZjQ	-8059
eby	-8060
MmMx	-8061
adian	-8062
Certain	-8063
Ownership	-8064
verse	-8065
▁Solar	-8066
▁section	-8067
970	-8068
_5_	-8069
ZmIw	-8070
dates	-8071
▁laun	-8072
845	-8073
685	-8074
Njdk	-8075
3549	-8076
YzBk	-8077
▁differences	-8078
MyOF	-8079
tenance	-8080
:125%;	-8081
MTFiNl	-8082
:100%">4,	-8083
puting	-8084
MjQyOTdi	-8085
149	-8086
ZGEw	-8087
jOmNmZj	-8088
kxNzVmY	-8089
NTNh	-8090
▁ans	-8091
▁2020.	-8092
MmFmODk	-8093
MTdmYTcz	-8094
20210531"	-8095
▁wee	-8096
▁Bold	-8097
ByReceivable	-8098
-81	-8099
156	-8100
YDj	-8101
_18	-8102
MGJi	-8103
▁prof	-8104
YjcyYzk	-8105
▁ste	-8106
ationMember	-8107
ZDliM	-8108
ZhNzNj	-8109
PlanBenefit	-8110
fab	-8111
▁#9595	-8112
95;	-8113
NTkxNzVmY	-8114
jOjVjYmZk	-8115
SOou	-8116
gfle	-8117
reater	-8118
>2021-12-	-8119
tOC	-8120
ingdings	-8121
ZhNzNjMjc	-8122
20"	-8123
SoZU	-8124
▁analy	-8125
JmZDliM	-8126
MWJjNjU	-8127
ZDVlMTFiNl	-8128
OB	-8129
2024	-8130
alest	-8131
▁post	-8132
OWIzZTYx	-8133
:#378	-8134
ZTJkNWUx	-8135
▁licensing	-8136
▁#959595;	-8137
▁projected	-8138
MTdmYTczYzI	-8139
▁investigations	-8140
918	-8141
omen	-8142
gfleDh	-8143
NWZjYzI	-8144
VlNjYyYWY	-8145
MjQyOTdiYjcyYzk	-8146
2019110	-8147
ZTYxYmM	-8148
YWZmNDlh	-8149
greements	-8150
NTFhNV	-8151
NlYzpjZmY	-8152
▁purchased	-8153
237	-8154
NzVl	-8155
NlODZl	-8156
spects	-8157
ZTJkNWUxMWI	-8158
9999	-8159
SOouSoZU	-8160
▁:10	-8161
NlYzoyNmU	-8162
alculated	-8163
205	-8164
amortized	-8165
▁consistent	-8166
NDQyM	-8167
NGUyZDVlMTFiNl	-8168
▁yield	-8169
YWZmNDlhMTc	-8170
102	-8171
NmFk	-8172
">000078901	-8173
▁fraud	-8174
Wingdings	-8175
jOmNmZjVlNjYyYWY	-8176
HE	-8177
sX	-8178
NmNl	-8179
gfleDhYDj	-8180
244	-8181
ZDZj	-8182
▁least	-8183
NlODZlNGFmZjQ	-8184
by	-8185
nu	-8186
losses	-8187
▁create	-8188
NGUz	-8189
MzlmL	-8190
&#160;29,	-8191
▁judgments	-8192
MmVm	-8193
jOjky	-8194
Nzll	-8195
▁reach	-8196
860	-8197
ich	-8198
▁Flow	-8199
&#160;1	-8200
">0000789019</	-8201
▁Man	-8202
alify	-8203
Commodity	-8204
▁Condition	-8205
OU	-8206
229	-8207
▁Unit	-8208
ZDVmOD	-8209
▁Employ	-8210
▁Restricted	-8211
629	-8212
▁preferred	-8213
233	-8214
_3_	-8215
MjNlOWU	-8216
264	-8217
ZGJiNWE	-8218
afb	-8219
eda	-8220
MjVjYTQ	-8221
YjVhNjM	-8222
NWZk	-8223
▁medic	-8224
>2017-12-31</	-8225
180	-8226
64%;	-8227
NWNhNDQyM	-8228
▁hand	-8229
▁death	-8230
EvZnJhZzoy	-8231
NTMx	-8232
jOjkyZGRj	-8233
ZmNhYmU	-8234
ODEzYWRi	-8235
▁exercise	-8236
urement	-8237
ME	-8238
▁bo	-8239
.3</	-8240
rate	-8241
447	-8242
dbf	-8243
goti	-8244
▁cross	-8245
MTNhZGJiNWE	-8246
301	-8247
▁enga	-8248
987	-8249
Nzhj	-8250
Well	-8251
MmRkYzEz	-8252
ZDEz	-8253
emium	-8254
▁Restated	-8255
04-	-8256
EwMWU	-8257
▁deploy	-8258
936	-8259
:7.2	-8260
ktMS	-8261
▁care	-8262
MTMyNWNhNDQyM	-8263
Rct	-8264
fca	-8265
▁impair	-8266
YzUz	-8267
▁refer	-8268
▁restated	-8269
VCv	-8270
obil	-8271
▁Development	-8272
ZGYz	-8273
edd	-8274
ODEzYWRiYjVhNjM	-8275
MDkz	-8276
MzJl	-8277
RctJ	-8278
Reportable	-8279
Repurchased	-8280
Njcy	-8281
rig	-8282
tVCv	-8283
AmortizedCost	-8284
off	-8285
arbon	-8286
▁File	-8287
NmVm	-8288
&#146;	-8289
OtherAssets	-8290
amzn	-8291
MDRmY	-8292
137	-8293
NjBk	-8294
VHku	-8295
MmRkYzEzMjVjYTQ	-8296
749	-8297
:99	-8298
▁dispo	-8299
Transaction	-8300
OTBi	-8301
MTkwL	-8302
YearFive	-8303
uses	-8304
FiZTUx	-8305
NmMwODA	-8306
FiM	-8307
▁strong	-8308
:130%"><	-8309
VHkuRctJ	-8310
ZjgxMDFl	-8311
Prim	-8312
YzliMTc	-8313
alization	-8314
">5</	-8315
Contingency	-8316
19%;	-8317
AndDevelopment	-8318
Can	-8319
ServicesMember	-8320
ZDhi	-8321
:100%">/	-8322
BS	-8323
bea	-8324
▁COMP	-8325
1%"/><	-8326
ZDVmODEwMWU	-8327
ZjgxMDFlNjE	-8328
NotesMember	-8329
925	-8330
:0.7	-8331
Expl	-8332
NGNh	-8333
Arising	-8334
▁domestic	-8335
NumberOfShares	-8336
deb	-8337
NThl	-8338
31"><	-8339
XzMtMS	-8340
▁filer	-8341
ZmVj	-8342
aac	-8343
▁Egy	-8344
▁AS	-8345
Estate	-8346
unc	-8347
▁sanctions	-8348
202301	-8349
NDlk	-8350
NjBi	-8351
come	-8352
20200531"	-8353
20210131"	-8354
OTYyL	-8355
.4</	-8356
MTZm	-8357
MTUxZmEw	-8358
▁alleged	-8359
▁combination	-8360
ZGFhYzk	-8361
YzZlMzE	-8362
company	-8363
▁restaur	-8364
150	-8365
-101	-8366
▁terror	-8367
449	-8368
475	-8369
▁Australia	-8370
121	-8371
127	-8372
MjJj	-8373
YTBkYWFj	-8374
">4.	-8375
andise	-8376
MDBiZTAx	-8377
Subsidiaries	-8378
ODAwYmUw	-8379
39"	-8380
▁recovery	-8381
Contractual	-8382
VariableInterest	-8383
xOTM	-8384
">1,0	-8385
▁improve	-8386
▁determination	-8387
xon	-8388
Purchases	-8389
durwordsen	-8390
inm	-8391
rop	-8392
RealEstate	-8393
ip	-8394
▁X	-8395
▁5.5	-8396
▁RSUs	-8397
NmUzMTQ	-8398
NTkwYjhj	-8399
▁strategies	-8400
MTUxZmEwZGFhYzk	-8401
NTBkM	-8402
▁particularly	-8403
916	-8404
▁response	-8405
lag	-8406
-02-0	-8407
YTBkYWFjOTYyL	-8408
ST	-8409
401	-8410
90"	-8411
Nzcy	-8412
26"><	-8413
ZjdmL	-8414
asterc	-8415
▁initial	-8416
514	-8417
▁28,	-8418
MGQzYmI	-8419
Indicate	-8420
OWRiNTRh	-8421
YWRhYj	-8422
MzIyNjll	-8423
astercard	-8424
MDBiZTAxNTFm	-8425
ZTMyMjY	-8426
270	-8427
arbucks	-8428
▁locations	-8429
▁disruptions	-8430
689	-8431
ReservesTypeAxis	-8432
Mzgy	-8433
both	-8434
JiOTlkYjU	-8435
YTAzYTM	-8436
450	-8437
NDAx	-8438
MDNhMzY	-8439
330	-8440
las	-8441
▁Uk	-8442
▁AMD	-8443
ODFh	-8444
NlYzoyNTBkM	-8445
eef	-8446
ODBh	-8447
ingly	-8448
oratory	-8449
▁Over	-8450
▁accrual	-8451
YzJlMzIyNjll	-8452
MIR	-8453
YTdh	-8454
ZmMx	-8455
XzQtMS	-8456
▁observable	-8457
24"	-8458
OGJm	-8459
▁qualified	-8460
ZjQy	-8461
▁delays	-8462
OWMyZTMyMjY	-8463
NTkwYjhjNmUzMTQ	-8464
RSU	-8465
117	-8466
228	-8467
MinorityInterest	-8468
tOS	-8469
OWRiNTRhMDNhMzY	-8470
▁appe	-8471
225	-8472
aGn	-8473
aki	-8474
NWLr	-8475
NWNk	-8476
">1,5	-8477
▁Coun	-8478
▁infring	-8479
▁targe	-8480
▁attacks	-8481
▁enhance	-8482
abd	-8483
▁Dri	-8484
VlZTI	-8485
aae	-8486
NGIw	-8487
emical	-8488
YjhiMzU	-8489
▁national	-8490
feit	-8491
OWRlYWU	-8492
respon	-8493
Operation	-8494
546	-8495
2;</	-8496
aGnJR	-8497
YzQx	-8498
month	-8499
OTliOGIz	-8500
▁Turk	-8501
YTQwNl	-8502
YjZhNDA	-8503
▁spending	-8504
977	-8505
fdc	-8506
Hedg	-8507
efinite	-8508
ZGVhZTcz	-8509
OWFhZmE	-8510
▁respective	-8511
133	-8512
345	-8513
ZmNm	-8514
stock	-8515
YzNiOD	-8516
ZWUyODk	-8517
NTlhYWZh	-8518
OTVh	-8519
IFE	-8520
▁State	-8521
AdjustmentFromA	-8522
">16	-8523
▁owned	-8524
SalesMember	-8525
▁Im	-8526
ZDVj	-8527
-1"><	-8528
▁holders	-8529
jOmVlZTI	-8530
BUCA	-8531
NTAw	-8532
OTliOGIzNTQ	-8533
▁potentially	-8534
hAm	-8535
NWRl	-8536
QnBQ	-8537
JiYjU	-8538
▁maturity	-8539
MIRw	-8540
▁pending	-8541
NTlhYWZhOWRlYWU	-8542
▁behalf	-8543
20191230-	-8544
MDEy	-8545
:10.76%;	-8546
OTZh	-8547
▁private	-8548
ZGVhZTczYjZhNDA	-8549
409	-8550
NWIz	-8551
ZmYy	-8552
uclear	-8553
328	-8554
▁periodic	-8555
Yjhl	-8556
till	-8557
31_2022_	-8558
NlYzplZWUyODk	-8559
▁rely	-8560
NotionalAmount	-8561
▁Rom	-8562
hAmMIRw	-8563
▁Braz	-8564
IFEQnBQ	-8565
AtMS	-8566
MjZl	-8567
▁contrac	-8568
AndTax	-8569
recurring	-8570
496	-8571
86</	-8572
▁plus	-8573
435	-8574
▁networks	-8575
-55	-8576
▁profitability	-8577
▁evolving	-8578
bda	-8579
▁11	-8580
▁opt	-8581
LOhAmMIRw	-8582
ka	-8583
Nzlj	-8584
▁appli	-8585
▁vesting	-8586
▁indefinite	-8587
bord	-8588
▁0.05	-8589
inations	-8590
▁0.0);">	-8591
▁things	-8592
YzNiODJl	-8593
325	-8594
0187	-8595
NzRh	-8596
GB	-8597
TOP	-8598
LTktMS	-8599
▁2022.	-8600
aec	-8601
ology	-8602
17"	-8603
755	-8604
fcd	-8605
▁assum	-8606
OTcx	-8607
OWEw	-8608
Cover	-8609
▁successfully	-8610
eea	-8611
raq	-8612
▁interpre	-8613
▁evid	-8614
lligence	-8615
950	-8616
">2.	-8617
PS	-8618
20230	-8619
RhMTI	-8620
enari	-8621
Next	-8622
YTEyNWI	-8623
XzIy	-8624
Provision	-8625
Nzdk	-8626
Commitments	-8627
IyNDFh	-8628
OTljOTY	-8629
230	-8630
YzZi	-8631
tection	-8632
▁bi	-8633
OThm	-8634
NzJiNjU	-8635
346	-8636
1231-	-8637
unded	-8638
935	-8639
985	-8640
YzRk	-8641
ZWQx	-8642
ators	-8643
▁mitig	-8644
YjcyMDY	-8645
▁recent	-8646
▁Adobe	-8647
487	-8648
YmYx	-8649
place	-8650
NmNiYmI	-8651
147	-8652
ded	-8653
▁PayPal	-8654
NjRjYjRhMTI	-8655
105	-8656
_17	-8657
Hold	-8658
fcb	-8659
MzFh	-8660
NzQz	-8661
pread	-8662
ercised	-8663
▁vendors	-8664
cbb	-8665
ODll	-8666
OWQx	-8667
▁home	-8668
▁OP	-8669
OWIy	-8670
NDIx	-8671
2)	-8672
City	-8673
OTQxL	-8674
▁Palest	-8675
▁subsidiary	-8676
▁noncontrolling	-8677
oap	-8678
ZmZi	-8679
▁des	-8680
="2"></	-8681
hysical	-8682
▁accepted	-8683
IssuanceOf	-8684
▁postretirement	-8685
xNjYvZnJhZzo	-8686
247	-8687
remental	-8688
▁Regulation	-8689
-57	-8690
iLw	-8691
KCM	-8692
RmNjk	-8693
▁Matters	-8694
:100%">2025</	-8695
844	-8696
bor	-8697
▁Indenture	-8698
796343</	-8699
.8</	-8700
▁forecast	-8701
Activity	-8702
________________	-8703
2-9	-8704
▁3.	-8705
VfsX	-8706
ZjRh	-8707
RQiLw	-8708
urtail	-8709
dilutive	-8710
onouncements	-8711
▁construction	-8712
▁important	-8713
Is	-8714
acf	-8715
YWIyMD	-8716
ding	-8717
proved	-8718
▁Products	-8719
NDgz	-8720
NjRj	-8721
LTAtMS	-8722
116	-8723
Build	-8724
▁uncertainty	-8725
▁media	-8726
▁Germany	-8727
▁participants	-8728
337	-8729
YzRh	-8730
VfsXte	-8731
▁types	-8732
▁projects	-8733
">0000796343</	-8734
ZjUw	-8735
908</	-8736
YWVm	-8737
▁crim	-8738
107	-8739
atio	-8740
Contributions	-8741
▁earned	-8742
AccountsPayable	-8743
mr	-8744
314	-8745
QxZjNh	-8746
Days	-8747
read	-8748
▁IS	-8749
OTkx	-8750
ZGRm	-8751
MzBhM	-8752
organ	-8753
:0.494%"></	-8754
▁maintenance	-8755
ZjBl	-8756
ZDRjY	-8757
VfsXteRQiLw	-8758
8285	-8759
▁then	-8760
945	-8761
ZTkw	-8762
NDRjM	-8763
ZmMzhh	-8764
940	-8765
ODgy	-8766
MWFiODk	-8767
verages	-8768
▁expand	-8769
▁termination	-8770
IwNmYz	-8771
dda	-8772
YWVh	-8773
YzFmMmQ	-8774
-17"	-8775
NTdj	-8776
MGEzYjI	-8777
loating	-8778
▁retirement	-8779
MmUwNl	-8780
MmVkYzI	-8781
YjZhMzk	-8782
jOmRmNjk	-8783
NiODIy	-8784
▁turn	-8785
jOmRhYj	-8786
▁British	-8787
644	-8788
Internal	-8789
MmJiNmEz	-8790
ZmMzhhZjQ	-8791
akiVfsXteRQiLw	-8792
296	-8793
ODAz	-8794
ZDFjMWYy	-8795
ZGMyNTJi	-8796
-02-	-8797
NTAx	-8798
ZWFhMTE	-8799
310	-8800
▁Year	-8801
YTExNWYy	-8802
IwNmYzOGFm	-8803
882	-8804
▁18	-8805
NjhmNzlk	-8806
MTQwMTQ	-8807
Continuous	-8808
NDdi	-8809
▁met	-8810
OWQyZTA	-8811
NiODIyMzBhM	-8812
II	-8813
MWYzYTQ	-8814
IyNDFhYjg	-8815
omb	-8816
Mjlk	-8817
NlYzpkZjY	-8818
GM	-8819
333	-8820
▁allocated	-8821
NmQxYzFmMmQ	-8822
155	-8823
QxZjNhNDg	-8824
MjIzMGEzYjI	-8825
MmJiNmEzOTQxL	-8826
▁gr	-8827
▁ensure	-8828
ZDFjMWYyZDRjY	-8829
NjhmNzlkMmUwNl	-8830
▁source	-8831
NlYzpkYWIyMD	-8832
xLTEtNz	-8833
NGQwM	-8834
MyNzRi	-8835
Netting	-8836
▁vaccine	-8837
OWVhYTExNWYy	-8838
▁former	-8839
OTEz	-8840
ODRj	-8841
jOjQxZjNhNDg	-8842
ZGMyNTJiYjZhMzk	-8843
IwNmYzOGFmNDRjM	-8844
MDRm	-8845
▁Sec	-8846
oting	-8847
▁exceed	-8848
▁calculated	-8849
Sm	-8850
holding	-8851
xNDUvZnJhZzo	-8852
▁liquid	-8853
858	-8854
MTRm	-8855
raordinary	-8856
daa	-8857
MDRi	-8858
▁exposures	-8859
60495	-8860
NDdjMjc	-8861
ZmVkYjc	-8862
ZmZlZGI	-8863
165	-8864
net	-8865
▁Micro	-8866
dcd	-8867
▁IP	-8868
:7.9	-8869
NThmL	-8870
YzIw	-8871
▁vir	-8872
▁Group	-8873
Arrangements	-8874
3-9	-8875
▁Gu	-8876
▁CORPOR	-8877
YmZlYjVm	-8878
MyNzRiOGZi	-8879
206	-8880
235	-8881
260	-8882
20220102"	-8883
80"	-8884
▁decisions	-8885
&#160;28,	-8886
AtCarryingValue	-8887
▁say	-8888
YjhmYmJm	-8889
dee	-8890
NTQxNDdjMjc	-8891
31-	-8892
875	-8893
CING	-8894
▁thousands	-8895
1046	-8896
▁requ	-8897
▁Taxes	-8898
▁evidence	-8899
▁centers	-8900
fghan	-8901
▁Supplemental	-8902
YmZlYjVmZmVkYjc	-8903
▁ti	-8904
ecuriti	-8905
▁largest	-8906
ODYzM	-8907
ZDAzYj	-8908
verted	-8909
ZjRmZGM	-8910
itative	-8911
YWFiZF	-8912
▁Reporting	-8913
dbd	-8914
NDFkYjQ	-8915
▁eligible	-8916
USTreasury	-8917
▁7.	-8918
▁90	-8919
ODBmNGQwM	-8920
YjhmYmJmZWI	-8921
▁:0	-8922
NzVk	-8923
YWJkL	-8924
hiMmMw	-8925
ZDAzYjhk	-8926
▁improvements	-8927
ZGZl	-8928
MGVkZV	-8929
▁Islam	-8930
MDRjMzU	-8931
NTQxZGI	-8932
▁warranty	-8933
.1%;	-8934
ODRm	-8935
ZGUwYWFiZF	-8936
▁experienced	-8937
-105	-8938
IONS	-8939
trin	-8940
ODUwZW	-8941
ory	-8942
NDMy	-8943
▁point	-8944
NTRlZjY	-8945
NjMzZjkx	-8946
ZDAzYjhkZTBh	-8947
-68	-8948
utin	-8949
▁2021.	-8950
ZTdj	-8951
aper	-8952
▁fin	-8953
▁With	-8954
AssetsAcquired	-8955
▁ft	-8956
MjIy	-8957
ODJi	-8958
▁entity	-8959
▁covered	-8960
03;	-8961
lef	-8962
refer	-8963
ZjcwNGMz	-8964
jOjVjZTc	-8965
ZTIy	-8966
YjJjMGY	-8967
ZmRjODBmNGQwM	-8968
baa	-8969
MTZhMjg	-8970
▁Standard	-8971
Modi	-8972
:13.0	-8973
Yzdm	-8974
-11-01</	-8975
jOjhiMmMw	-8976
240	-8977
:98	-8978
ODUwZWRlL	-8979
numwordsen	-8980
▁automotive	-8981
168	-8982
▁elimin	-8983
Identifiable	-8984
427	-8985
YWYx	-8986
owned	-8987
retion	-8988
NjMzZjkxNmEy	-8989
645	-8990
NjMy	-8991
Sc	-8992
irst	-8993
yond	-8994
:0.93	-8995
439	-8996
480	-8997
XzIz	-8998
gether	-8999
▁manner	-9000
▁alternative	-9001
-10-31</	-9002
Authority	-9003
Disclosures	-9004
Recognition	-9005
.8%;	-9006
ZjcwNGMzNTRlZjY	-9007
ane	-9008
Zjkw	-9009
NjL	-9010
:0.93%;	-9011
raine	-9012
▁Asia	-9013
trinsic	-9014
pillar	-9015
▁best	-9016
:1.39%;	-9017
▁quoted	-9018
MzMz	-9019
ength	-9020
▁intended	-9021
MDIz	-9022
OWMw	-9023
alero	-9024
itle	-9025
den	-9026
▁summarizes	-9027
eba	-9028
518	-9029
75"	-9030
▁LLC	-9031
99"	-9032
SPA	-9033
;"/>	-9034
ZTgx	-9035
ZThj	-9036
Mzdl	-9037
OTcw	-9038
estit	-9039
▁2023.	-9040
▁enterprise	-9041
ustee	-9042
Investing	-9043
Contingencies	-9044
750	-9045
▁what	-9046
377	-9047
YTlh	-9048
NjYy	-9049
MDNhNDM	-9050
▁field	-9051
705	-9052
719	-9053
bcb	-9054
aterpillar	-9055
455	-9056
NDJi	-9057
▁issue	-9058
▁venture	-9059
▁2%;	-9060
SaleOf	-9061
909	-9062
YzMy	-9063
ama	-9064
NDZk	-9065
umerous	-9066
prietary	-9067
NTNk	-9068
▁project	-9069
849	-9070
▁Pak	-9071
▁find	-9072
ody	-9073
▁VI	-9074
cbd	-9075
ODIz	-9076
>2020-12-	-9077
▁Canadian	-9078
:60	-9079
-19"	-9080
▁shar	-9081
▁Syria	-9082
▁$2	-9083
care	-9084
▁you	-9085
Master	-9086
AccountingPr	-9087
YTdj	-9088
XzUtMS	-9089
_6_	-9090
;">6,	-9091
;">(1,	-9092
▁correspon	-9093
aea	-9094
MDgz	-9095
aythe	-9096
▁ra	-9097
PADD	-9098
▁beyond	-9099
:100%">6	-9100
Mortgage	-9101
_7_	-9102
ZTNl	-9103
▁unsecured	-9104
IzODA	-9105
aytheon	-9106
▁CELLPADD	-9107
Aggregate	-9108
akes	-9109
TaxPositions	-9110
▁Iraq	-9111
SPACING	-9112
Machinery	-9113
▁early	-9114
Nf	-9115
ZWIz	-9116
MDJk	-9117
▁Inter	-9118
RelatedParty	-9119
cD	-9120
▁coverage	-9121
▁features	-9122
▁CELLPADDING	-9123
▁determining	-9124
afa	-9125
Mjlh	-9126
▁eft	-9127
stant	-9128
▁indemn	-9129
▁CELLSPACING	-9130
▁exten	-9131
▁Changes	-9132
:0.54%;">	-9133
">00010187	-9134
jOjg	-9135
14"	-9136
835	-9137
MTEtMS	-9138
▁Director	-9139
▁disposition	-9140
baf	-9141
VmZDRm	-9142
▁fines	-9143
cdc	-9144
Swap	-9145
imbur	-9146
949	-9147
Rle	-9148
Anti	-9149
MWIy	-9150
NDBm	-9151
:49.5	-9152
MWRlNTY	-9153
aaa	-9154
yZW	-9155
qcom	-9156
UzMWQ	-9157
YTQzNl	-9158
ZmQwY	-9159
llNGRh	-9160
▁dealers	-9161
▁medical	-9162
▁difficult	-9163
OWUxZGU	-9164
AmericaMember	-9165
NDZm	-9166
NotesReceivable	-9167
▁thro	-9168
MmUwMTE	-9169
OWRjNzJl	-9170
">0001018724</	-9171
Timing	-9172
MDExNDAz	-9173
jOjllNGRh	-9174
19"	-9175
▁expo	-9176
▁Segment	-9177
OTMy	-9178
Mobil	-9179
dpb	-9180
RleHR	-9181
OptionsEx	-9182
efa	-9183
pers	-9184
YTZhN	-9185
▁emerging	-9186
">11,	-9187
OTcyL	-9188
MjFk	-9189
-10-0	-9190
▁known	-9191
ZTRkYWZk	-9192
OTAw	-9193
NhNmE	-9194
▁divestit	-9195
▁electron	-9196
jOjllNGRhZmQwY	-9197
407	-9198
826	-9199
▁000000;	-9200
MDExNDAzYTQzNl	-9201
RleHRyZW	-9202
▁identify	-9203
NjllMWRlNTY	-9204
657	-9205
ley	-9206
:1.2	-9207
70858</	-9208
MGNlZmQ	-9209
ZjNjYTZhN	-9210
▁organization	-9211
ush	-9212
NDFm	-9213
ZDBm	-9214
MzVkOTcyL	-9215
:100%">2019</	-9216
YzYx	-9217
hout	-9218
VmZDRmM	-9219
UK	-9220
MjVi	-9221
ZWJh	-9222
Title	-9223
926"	-9224
MDFi	-9225
MmFi	-9226
▁Citi	-9227
650	-9228
eep	-9229
imited	-9230
ception	-9231
309	-9232
589	-9233
▁mov	-9234
RleHRyZWdpb	-9235
735	-9236
▁ratings	-9237
▁numerous	-9238
yMjk	-9239
:11.7	-9240
Allocated	-9241
124	-9242
159	-9243
YWJj	-9244
▁brli	-9245
1%"></	-9246
ported	-9247
ZTRkYWZkMGNlZmQ	-9248
848	-9249
YzJk	-9250
▁Rate	-9251
Mjkx	-9252
▁000;	-9253
34%"/><	-9254
▁reti	-9255
▁negoti	-9256
Extraordinary	-9257
">0000070858</	-9258
18%;	-9259
-66	-9260
▁deb	-9261
onald	-9262
▁continues	-9263
PM	-9264
End	-9265
pts	-9266
758	-9267
▁$0	-9268
ughout	-9269
335	-9270
38"	-9271
276	-9272
YjRl	-9273
righ	-9274
▁bottling	-9275
Convertible	-9276
dict	-9277
March	-9278
nique	-9279
_11_4_	-9280
▁clients	-9281
▁responsibility	-9282
ZTQw	-9283
Second	-9284
OtherLiabilities	-9285
ipe	-9286
);"><	-9287
▁inventories	-9288
SharesAuthorized	-9289
">17	-9290
MGVm	-9291
ffee	-9292
▁status	-9293
StockRepurchased	-9294
20221	-9295
:114%"><	-9296
YjMz	-9297
▁Arab	-9298
NDRi	-9299
▁mar	-9300
14%;	-9301
YWQy	-9302
aza	-9303
2014	-9304
faction	-9305
▁advance	-9306
85%;	-9307
-100	-9308
▁5.4	-9309
Forestry	-9310
_11_4_2019_	-9311
437	-9312
669	-9313
onduc	-9314
▁FOR	-9315
ffb	-9316
NDRm	-9317
OTAy	-9318
▁detail	-9319
MDYz	-9320
320	-9321
:100%">0	-9322
emiconduc	-9323
>2019-11-0	-9324
ruption	-9325
xonMobil	-9326
ren	-9327
▁subsc	-9328
1;	-9329
-09	-9330
fad	-9331
Yjhh	-9332
odel	-9333
zing	-9334
▁resid	-9335
▁Pacific	-9336
tgt	-9337
Over	-9338
ZmMw	-9339
">00000024	-9340
▁developments	-9341
▁Palestini	-9342
▁reclassified	-9343
460	-9344
bfb	-9345
Agreement	-9346
Construction	-9347
3-8	-9348
355	-9349
490	-9350
Yzlm	-9351
▁space	-9352
▁agency	-9353
▁ban	-9354
799	-9355
OWZi	-9356
asted	-9357
▁allocation	-9358
RS	-9359
759	-9360
41.	-9361
▁National	-9362
▁CORPORATION	-9363
aee	-9364
▁lspan	-9365
Reconciling	-9366
▁closing	-9367
▁often	-9368
▁guarantees	-9369
">0000002488</	-9370
660	-9371
BySegment	-9372
404	-9373
▁26,	-9374
▁ack	-9375
2022012	-9376
▁complaint	-9377
OWFi	-9378
Tb	-9379
517	-9380
fference	-9381
anes	-9382
author	-9383
MjEz	-9384
cuments	-9385
&#8221;),	-9386
fill	-9387
erger	-9388
quisite	-9389
▁apply	-9390
TC	-9391
MGYz	-9392
TION	-9393
ental	-9394
:4.55	-9395
▁colsp	-9396
▁olspan	-9397
▁UN	-9398
aight	-9399
;">(</	-9400
▁dependent	-9401
190	-9402
▁50	-9403
▁2019.	-9404
:100%">5,	-9405
now	-9406
OWFm	-9407
▁xbrli	-9408
payment	-9409
Through	-9410
▁Afghan	-9411
▁Mr	-9412
MmRl	-9413
ZmMGY	-9414
acted	-9415
▁electric	-9416
▁investors	-9417
Primary	-9418
647	-9419
MjQz	-9420
▁rli	-9421
ZTRmN	-9422
▁depend	-9423
:120%">,	-9424
122	-9425
OGUx	-9426
NWJk	-9427
Nzlm	-9428
20201101	-9429
OThl	-9430
YWRmY	-9431
distr	-9432
▁strength	-9433
bcc	-9434
yMjM	-9435
counted	-9436
▁diluted	-9437
▁performed	-9438
yMzU	-9439
XzQtMy	-9440
ZkNmFl	-9441
▁proprietary	-9442
195	-9443
ZDViYjFi	-9444
Mzlk	-9445
YTYzL	-9446
arkets	-9447
Inte	-9448
▁place	-9449
faf	-9450
OGRk	-9451
▁ion	-9452
▁repa	-9453
NDQyNDhh	-9454
▁ck	-9455
NWQw	-9456
OGNh	-9457
mbol	-9458
▁civil	-9459
▁incidents	-9460
130	-9461
:-2.44	-9462
YmIxYmE	-9463
cec	-9464
OTQz	-9465
▁rapid	-9466
ZkNmFlM	-9467
ZTMxZDViYjFi	-9468
8%"/><	-9469
245	-9470
646	-9471
XzMtMy	-9472
YwMDVh	-9473
▁influ	-9474
NlYzoxN	-9475
xLTEtMj	-9476
▁utilize	-9477
MasterNetting	-9478
YWUzYTdm	-9479
▁beverage	-9480
yMTc	-9481
▁pati	-9482
▁#0071	-9483
Includes	-9484
ODQz	-9485
:110%">	-9486
▁Security	-9487
ODRh	-9488
NDQyNDhhZGZj	-9489
RIES	-9490
YjYx	-9491
Yzhl	-9492
▁Min	-9493
20190930-	-9494
cef	-9495
MzJj	-9496
lvbjo	-9497
invest	-9498
4-9	-9499
MWFk	-9500
NDEzYmRl	-9501
▁franchi	-9502
/00011046	-9503
xODQ	-9504
▁Air	-9505
82852</	-9506
ills	-9507
Aff	-9508
NjRhNGU	-9509
ZjdkYTQ	-9510
ZjAwNWE	-9511
▁Mastercard	-9512
acd	-9513
MzBm	-9514
ZkZDI	-9515
ledged	-9516
ebc	-9517
Technology	-9518
ExchangeRate	-9519
MzFk	-9520
MTNiZGU	-9521
YjNk	-9522
eafter	-9523
▁swaps	-9524
▁Middle	-9525
▁identified	-9526
NlYzowNDEzYmRl	-9527
▁read	-9528
ZGQyNzA	-9529
NGZj	-9530
YTdk	-9531
;">12	-9532
RhNDZkZDI	-9533
▁interpret	-9534
136	-9535
▁More	-9536
Dollars	-9537
YwMDVhOF	-9538
▁generate	-9539
MDVjZjAwNWE	-9540
xMzYvZnJhZzo	-9541
YzVj	-9542
▁Companies	-9543
Yzhj	-9544
▁reflects	-9545
1-9	-9546
433	-9547
9;"><	-9548
spective	-9549
">0001682852</	-9550
▁deposits	-9551
Reg	-9552
bdc	-9553
▁Sw	-9554
Twelve	-9555
▁changing	-9556
▁203	-9557
Trade	-9558
63908</	-9559
laintiffs	-9560
employ	-9561
dbe	-9562
Distribu	-9563
OperationsMember	-9564
its	-9565
640	-9566
OTEy	-9567
layout	-9568
▁committed	-9569
▁depends	-9570
aad	-9571
▁close	-9572
▁straight	-9573
/1	-9574
;">8	-9575
Greater	-9576
edf	-9577
:1.02%;">	-9578
OtherMember	-9579
529	-9580
XzItMS	-9581
▁estate	-9582
0.01);"><	-9583
Fv	-9584
mrna	-9585
ope	-9586
yMTEvZnJhZzo	-9587
YmYw	-9588
982</	-9589
▁region	-9590
MDVk	-9591
▁officer	-9592
EquipmentMember	-9593
164	-9594
ches	-9595
YTJm	-9596
item	-9597
▁banks	-9598
▁cards	-9599
▁Document	-9600
ogle	-9601
aller	-9602
lobally	-9603
▁37	-9604
ODMy	-9605
">6</	-9606
Recei	-9607
MTAtMS	-9608
currency	-9609
QTD	-9610
▁hedged	-9611
▁cols	-9612
▁proved	-9613
">0000063908</	-9614
:35	-9615
ication	-9616
▁merchandise	-9617
ValuationTech	-9618
649	-9619
▁raw	-9620
▁settlements	-9621
459	-9622
481	-9623
Mjdh	-9624
backed	-9625
Adoption	-9626
878	-9627
aab	-9628
▁cumulative	-9629
NzRj	-9630
rgani	-9631
Acquisitions	-9632
my	-9633
MDhj	-9634
Canada	-9635
Millions	-9636
▁properties	-9637
AndEquipmentNet	-9638
Construc	-9639
▁extended	-9640
ODdj	-9641
▁know	-9642
Mzky	-9643
▁Nor	-9644
728	-9645
775	-9646
">18	-9647
▁therefore	-9648
bde	-9649
29"><	-9650
440	-9651
▁Ph	-9652
ODMz	-9653
▁consisted	-9654
BeforeReclassi	-9655
bef	-9656
ecf	-9657
MDQw	-9658
YjJi	-9659
▁Gaza	-9660
▁colspa	-9661
▁Johnson	-9662
▁forth	-9663
836	-9664
OWNi	-9665
525	-9666
gent	-9667
;">0.	-9668
UnitsRSU	-9669
624	-9670
More	-9671
:1.38%;	-9672
edc	-9673
▁0000;	-9674
▁lawsuits	-9675
489	-9676
tes	-9677
▁allowances	-9678
EmployeeService	-9679
jOmQy	-9680
▁retai	-9681
ZjRi	-9682
YjAzY	-9683
▁progress	-9684
JmOGQ	-9685
fdd	-9686
OTll	-9687
antit	-9688
acb	-9689
YWJi	-9690
9617</	-9691
▁autom	-9692
▁00000;	-9693
MjRi	-9694
▁Def	-9695
▁metric	-9696
▁drive	-9697
▁partner	-9698
ConstructionAnd	-9699
MDdk	-9700
eves	-9701
▁seas	-9702
▁presents	-9703
▁equal	-9704
▁Interest	-9705
▁workforce	-9706
▁Mus	-9707
710	-9708
▁EB	-9709
name	-9710
▁Equi	-9711
▁money	-9712
▁COMPAN	-9713
OptionMember	-9714
">0000019617</	-9715
NTcx	-9716
oogle	-9717
XzMy	-9718
YzRi	-9719
.027	-9720
Basi	-9721
echnologies	-9722
YThl	-9723
▁given	-9724
▁treatment	-9725
_10_29_2018_	-9726
034	-9727
▁small	-9728
499	-9729
700	-9730
NTEx	-9731
015	-9732
">12,	-9733
ODQw	-9734
▁nuclear	-9735
▁discounts	-9736
xMDM	-9737
-10-30</	-9738
▁Holdings	-9739
NzJj	-9740
▁course	-9741
eveloped	-9742
FordCreditMember	-9743
=2>(	-9744
ODdk	-9745
ODhk	-9746
▁throughout	-9747
Pharmaceutical	-9748
NlNl	-9749
antitative	-9750
authorized	-9751
War	-9752
MzIz	-9753
20200930"	-9754
665	-9755
990	-9756
ITIES	-9757
irect	-9758
_11_1_2021_	-9759
144	-9760
930"	-9761
NGFi	-9762
YWIwM	-9763
dab	-9764
▁2024.	-9765
Transactions	-9766
▁user	-9767
▁2018.	-9768
UnitsRSUMember	-9769
YzQy	-9770
ODIyNzdh	-9771
ByIndustry	-9772
MjNj	-9773
:15.0	-9774
▁foot	-9775
ZmVhOWQ	-9776
084	-9777
▁tools	-9778
backgrou	-9779
▁outcome	-9780
GainLossNet	-9781
lassification	-9782
444	-9783
fbb	-9784
OTcyNmZl	-9785
:;	-9786
▁stu	-9787
backgroun	-9788
▁regulation	-9789
639	-9790
MDYy	-9791
FlODlh	-9792
887	-9793
Part	-9794
due	-9795
YjRh	-9796
YTlkOWY	-9797
37"	-9798
▁IT	-9799
nonF	-9800
20181230-	-9801
ections	-9802
▁consists	-9803
FlODlhYjAzY	-9804
OGZk	-9805
lectively	-9806
▁Starbucks	-9807
▁quanti	-9808
ODIyNzdhZTg	-9809
vironmental	-9810
▁performing	-9811
afc	-9812
MmFk	-9813
672	-9814
▁asser	-9815
NzRm	-9816
Yjlh	-9817
:100%">7	-9818
627	-9819
▁pe	-9820
YmYy	-9821
382	-9822
unt	-9823
201"	-9824
28%;	-9825
mented	-9826
869	-9827
▁sci	-9828
▁reserve	-9829
NlYzowOTcyNmZl	-9830
">19	-9831
YmNh	-9832
ZTJm	-9833
ByIndustryAxis	-9834
812	-9835
MmJm	-9836
MzBj	-9837
NzBk	-9838
aboration	-9839
=0	-9840
MjRh	-9841
ODBj	-9842
NTNi	-9843
nonFracti	-9844
▁adequate	-9845
:11.619	-9846
955	-9847
tible	-9848
NDllZjFj	-9849
▁corresponding	-9850
.50	-9851
▁trademarks	-9852
Africa	-9853
TimingOf	-9854
▁attract	-9855
_10_28_2018_	-9856
att	-9857
xLTc	-9858
277	-9859
YjBj	-9860
Awards	-9861
ODhl	-9862
▁conflic	-9863
:100%">12	-9864
Red	-9865
YTRl	-9866
YTgw	-9867
ried	-9868
▁core	-9869
▁Change	-9870
203-	-9871
NGFh	-9872
▁stop	-9873
Software	-9874
▁ackground	-9875
361	-9876
Taxes	-9877
Cola	-9878
eting	-9879
▁COMPANY	-9880
Settlement	-9881
790	-9882
:3.00	-9883
OTNlND	-9884
619	-9885
▁dead	-9886
▁expl	-9887
▁Ukraine	-9888
MajorCustomers	-9889
-07-	-9890
backg	-9891
804328</	-9892
oney	-9893
jOjFi	-9894
▁times	-9895
ZTVhNDg	-9896
&#8221;).	-9897
BasisAxis	-9898
▁conversion	-9899
MTFkY	-9900
▁preparation	-9901
ZGNjY	-9902
CumulativeEffect	-9903
177	-9904
:3.5	-9905
▁FAS	-9906
ZTllL	-9907
ailed	-9908
hjNTU	-9909
NGRkZV	-9910
ZmRkMj	-9911
MzkzZTQ	-9912
LiabilityCurrent	-9913
▁cance	-9914
DerivativeAssets	-9915
UzODRi	-9916
XzUtMy	-9917
MWNkZWY	-9918
YjUxNzE	-9919
RecognizedIn	-9920
89"	-9921
976	-9922
imize	-9923
▁SUBS	-9924
ZDJiMWMz	-9925
249	-9926
Zjcz	-9927
BenefitPayments	-9928
NewAccountingPr	-9929
▁sk	-9930
YWNm	-9931
ZGRlL	-9932
▁When	-9933
ZGEwOTI	-9934
_20190	-9935
MTkzYmY	-9936
NGNjYzY	-9937
▁leased	-9938
OTNlNDhjNTU	-9939
099	-9940
bae	-9941
▁caused	-9942
jOjVkYTA	-9943
OWVmMWNkZWY	-9944
">0000804328</	-9945
OWZk	-9946
YmRi	-9947
▁dates	-9948
JkMTFkY	-9949
MGQyYjFj	-9950
ZDIyZDEx	-9951
:100%">6,	-9952
▁forecasted	-9953
_0000034088_	-9954
UzODRiZTVhNDg	-9955
jOjFiNTE	-9956
MDQx	-9957
OGFi	-9958
25"><	-9959
739	-9960
NjNjRjYj	-9961
ZGVmNGRkZV	-9962
xNDgvZnJhZzo	-9963
ODRiN	-9964
YmFiNWZk	-9965
▁Significant	-9966
430	-9967
805	-9968
cludes	-9969
YTZiYWI	-9970
NlYzoxYjUxNzE	-9971
MzRk	-9972
▁ckground	-9973
▁discounted	-9974
87"	-9975
SUP	-9976
OGZm	-9977
▁Fair	-9978
▁distributors	-9979
CAOB	-9980
ZDQwZDJiMWMz	-9981
NmRkOWE	-9982
85"	-9983
bcf	-9984
cDonald	-9985
Index	-9986
MGQyYjFjMzkzZTQ	-9987
alse	-9988
FairV	-9989
Subsequent	-9990
ZDIyZDExZGNjY	-9991
-3"><	-9992
▁SUBSIDIA	-9993
Antidilutive	-9994
ZmRkMjJkMTFkY	-9995
359	-9996
RE	-9997
34"	-9998
376	-9999
Goods	-10000
▁Investments	-10001
Cre	-10002
20220130"	-10003
erospace	-10004
▁kground	-10005
;">/	-10006
ZDcz	-10007
April	-10008
/0001104659	-10009
YTQyYTZiYWI	-10010
jected	-10011
Document	-10012
▁globally	-10013
NotesPayable	-10014
▁organizations	-10015
_8_	-10016
List	-10017
▁land	-10018
965	-10019
▁ound	-10020
▁building	-10021
Thi	-10022
NTNl	-10023
NiNWZl	-10024
▁produce	-10025
▁SUBSIDIARIES	-10026
614	-10027
PeriodPastDue	-10028
▁0.0);">&#160;</	-10029
Reti	-10030
▁(1)	-10031
▁submit	-10032
▁capitalized	-10033
675	-10034
yMjY	-10035
60667</	-10036
ExLTEtMS	-10037
▁actuarial	-10038
/21344/00000	-10039
▁denominated	-10040
725	-10041
="2"><	-10042
XzEwOTk	-10043
="8"	-10044
MzRl	-10045
NDNh	-10046
thanol	-10047
▁inflation	-10048
="7"	-10049
▁2014,	-10050
▁women	-10051
NWVj	-10052
gain	-10053
ification	-10054
297	-10055
EEC	-10056
SEC	-10057
ODJh	-10058
▁attem	-10059
ertification	-10060
arrier	-10061
▁page	-10062
MGJiM	-10063
backgr	-10064
China	-10065
▁leading	-10066
EntityAxis	-10067
MTEy	-10068
down	-10069
weigh	-10070
▁methods	-10071
YzZjL	-10072
VA	-10073
670	-10074
▁exclu	-10075
34%;	-10076
NzFk	-10077
VlYTU	-10078
aving	-10079
thern	-10080
&#160;10-	-10081
SalesBySegment	-10082
▁($	-10083
ODkzMzc	-10084
YzhmOTg	-10085
MWVkNzg	-10086
YzliNmIy	-10087
endments	-10088
">0000060667</	-10089
??	-10090
189	-10091
Vol	-10092
▁enforcement	-10093
.74	-10094
NWNjOGY	-10095
OWExZWQ	-10096
▁increasingly	-10097
NjRk	-10098
YTQx	-10099
:12%;"></	-10100
CL	-10101
ones	-10102
_20200	-10103
iciary	-10104
▁defense	-10105
▁cam	-10106
ODRjMz	-10107
explicitMem	-10108
▁engineering	-10109
NjhkYT	-10110
YTZiMGM	-10111
OTgwMDRj	-10112
▁seeking	-10113
YzliNmIyMWU	-10114
nv	-10115
view	-10116
▁Gre	-10117
▁deemed	-10118
MWZmNzJl	-10119
202110	-10120
MjFlNjQ	-10121
October	-10122
Incorporated	-10123
428	-10124
MDRh	-10125
NmRhNmIw	-10126
jOjExZmY	-10127
▁computing	-10128
ODlhMWVkNzg	-10129
▁resolution	-10130
MjRm	-10131
▁threats	-10132
27_	-10133
rand	-10134
▁From	-10135
▁Brazil	-10136
NlYzphNzVj	-10137
8-9	-10138
▁transportation	-10139
OTlh	-10140
YzZkYTZiMGM	-10141
RevenueRemaining	-10142
▁sw	-10143
202"	-10144
▁way	-10145
AzMTY	-10146
▁along	-10147
MWZmNzJlNTk	-10148
Flag	-10149
-09-29</	-10150
▁justify	-10151
ertificate	-10152
GainsLosses	-10153
YjZiMjFlNjQ	-10154
xNjMvZnJhZzo	-10155
652	-10156
695	-10157
flo	-10158
XzYtMS	-10159
.&#8217;	-10160
PercentDue	-10161
▁ph	-10162
66%;">	-10163
748	-10164
YTRj	-10165
YmUxL	-10166
MDMxNjdk	-10167
Contribution	-10168
me	-10169
ourse	-10170
overy	-10171
▁degre	-10172
▁declared	-10173
dbc	-10174
NDky	-10175
ZWJlMV	-10176
NTRhZGFi	-10177
▁operation	-10178
OTgwMDRjNmRhNmIw	-10179
YTVj	-10180
YearTwo	-10181
▁physical	-10182
dian	-10183
NmRlYmUxL	-10184
xODcvZnJhZzo	-10185
967	-10186
MDRl	-10187
YzYz	-10188
▁rif	-10189
tMTEtMS	-10190
AssetBacked	-10191
Description	-10192
204	-10193
NlYzpjNjM	-10194
overnance	-10195
▁statutory	-10196
Inventories	-10197
EW	-10198
Fo	-10199
LTEw	-10200
xLTUx	-10201
▁feed	-10202
olitical	-10203
MDMxNjdkYzc	-10204
fcf	-10205
fdf	-10206
File	-10207
NjZkZWJlMV	-10208
YWRhYjAzMTY	-10209
NDZh	-10210
▁concentr	-10211
726	-10212
efb	-10213
etrole	-10214
ZWVhNTRhZGFi	-10215
eee	-10216
79</	-10217
Lic	-10218
ODAy	-10219
YmFj	-10220
YWFhN	-10221
benefit	-10222
ursuant	-10223
ZjQzNmJi	-10224
238	-10225
84"	-10226
2025_	-10227
▁ware	-10228
="1"></	-10229
040	-10230
:0.384	-10231
365	-10232
LTEwLTEtMS	-10233
OWZm	-10234
YTVm	-10235
ZGZi	-10236
ideo	-10237
▁terri	-10238
▁separate	-10239
▁profession	-10240
">24	-10241
OGMx	-10242
▁American	-10243
EvZnJhZzpl	-10244
734	-10245
NzcwL	-10246
▁Saudi	-10247
xMTIvZnJhZzo	-10248
YzVm	-10249
TwelveMonths	-10250
YmIw	-10251
ZDBl	-10252
▁red	-10253
▁indicate	-10254
Allocation	-10255
Additions	-10256
YWMw	-10257
Yjdl	-10258
AsiaPacific	-10259
OGVm	-10260
jOmVmN	-10261
ODdiMmQw	-10262
ZmJjNzcwL	-10263
Inf	-10264
hit	-10265
ODFi	-10266
YTFi	-10267
MGZiYzc	-10268
AtFairValue	-10269
MGUy	-10270
YjVmZTg	-10271
▁licensed	-10272
aca	-10273
hei	-10274
heig	-10275
▁framework	-10276
692	-10277
;">3	-10278
YThm	-10279
ZjOTI	-10280
dlNjdj	-10281
YzMwYjU	-10282
Eight	-10283
ODRjMzBi	-10284
cab	-10285
Turf	-10286
OTJkMDhi	-10287
:1.04%;">	-10288
▁mitigate	-10289
ddd	-10290
NotSubjectTo	-10291
PastDueMember	-10292
▁remeas	-10293
▁channels	-10294
3)	-10295
448	-10296
MmJl	-10297
Njli	-10298
ODVm	-10299
YjJkMGZiYzc	-10300
sa	-10301
faa	-10302
NDUy	-10303
atch	-10304
▁Total	-10305
▁together	-10306
Subsegments	-10307
NTljODdiMmQw	-10308
469	-10309
NDNi	-10310
YTNh	-10311
▁area	-10312
ybersecurity	-10313
NiNWZlODRjMzBi	-10314
▁month	-10315
▁elected	-10316
498	-10317
▁extend	-10318
wei	-10319
;">3.	-10320
dlNjdjYjVmZTg	-10321
Njkx	-10322
YjFk	-10323
4)</	-10324
▁Although	-10325
208	-10326
MDZh	-10327
Write	-10328
Increases	-10329
616	-10330
687	-10331
ZjAzY	-10332
paign	-10333
raphic	-10334
412	-10335
;">1</	-10336
▁So	-10337
▁involve	-10338
Zf	-10339
005	-10340
173	-10341
MmZi	-10342
NTQz	-10343
▁temporary	-10344
▁legislation	-10345
NWFj	-10346
log	-10347
Address	-10348
▁27,	-10349
MzgzL	-10350
JmOTlj	-10351
OTQwMGY	-10352
▁inherent	-10353
▁regularly	-10354
▁EX	-10355
NGJk	-10356
▁Transac	-10357
_11_2_2020_	-10358
▁disruption	-10359
UxZWNk	-10360
20210104-	-10361
35"	-10362
YWZl	-10363
▁:#	-10364
YTIx	-10365
ZjVmYWM	-10366
20211226-	-10367
777	-10368
FhMmM	-10369
ZmFjOTg	-10370
009	-10371
248	-10372
_26	-10373
ZmZlL	-10374
▁structure	-10375
_28	-10376
eeb	-10377
NGVk	-10378
ZDIw	-10379
ViOTE	-10380
jOmZjOTI	-10381
Exploratory	-10382
Unamortized	-10383
241	-10384
0"><	-10385
MzJm	-10386
Mzcz	-10387
YjgzL	-10388
OWExZWI	-10389
YzkyOTNi	-10390
JmOTljNzQ	-10391
▁medicines	-10392
emiconductor	-10393
MWZl	-10394
YzMx	-10395
▁put	-10396
NGJjY	-10397
▁25.75	-10398
Yzgy	-10399
essed	-10400
;">2014</	-10401
CS	-10402
MTkxL	-10403
NzUwOWVj	-10404
jOjZmMGY	-10405
_22	-10406
13">	-10407
MzZiYmY	-10408
NmUzNGFj	-10409
NDAwZjVmYWM	-10410
.00</	-10411
MWZmZV	-10412
MDllYzg	-10413
MmQwOGI	-10414
MzUzZWI	-10415
OWNmOWY	-10416
OTJkMDhiODc	-10417
45810</	-10418
ODBmNzc	-10419
ZjBmNjM	-10420
ZjkxNmY	-10421
ODUzYjgzL	-10422
OTQxMGJiM	-10423
sIncluding	-10424
VestedInPeriod	-10425
YjFl	-10426
NhOTFl	-10427
MTBiYjNj	-10428
YjRj	-10429
MTRiMmQ	-10430
YjhkMzE	-10431
ODExZmZlL	-10432
187	-10433
989	-10434
ddf	-10435
▁Oil	-10436
▁inclu	-10437
▁states	-10438
839	-10439
OWYx	-10440
MWUyL	-10441
YWYwM	-10442
enario	-10443
ODgxMWZmZV	-10444
YzkyOTNiZjk	-10445
ublish	-10446
NlNDRiY	-10447
MTZmNjAx	-10448
YzQwZjlh	-10449
▁exposed	-10450
OGQzMTkxL	-10451
▁presentation	-10452
ZDdk	-10453
▁deri	-10454
NlYzoxNmUzNGFj	-10455
948	-10456
MWQw	-10457
▁funded	-10458
NhOTFlMl	-10459
OTRk	-10460
YjYw	-10461
Middle	-10462
before	-10463
3%;"></	-10464
YjJkODBmNzc	-10465
NzYyOTQxMGJiM	-10466
MTBiYjNjOWExZWI	-10467
2015	-10468
ZmZhMDQ	-10469
LTExLTEtMS	-10470
cell	-10471
peti	-10472
ulner	-10473
FhODgw	-10474
ZTVlNj	-10475
-02-01</	-10476
YTFlYjVi	-10477
▁training	-10478
PeriodAxis	-10479
25.1	-10480
MThm	-10481
OGRi	-10482
:120%">.	-10483
ZTVlNjFiM	-10484
77"	-10485
uled	-10486
ODVhNGU	-10487
ZWZmYTA	-10488
▁conven	-10489
_11_2_2025_	-10490
YWEyYzQwZjlh	-10491
ZjQzNmJiZjkxNmY	-10492
PE	-10493
cba	-10494
MWVjZF	-10495
-10-29</	-10496
▁default	-10497
NotDesignatedAs	-10498
DisclosureMember	-10499
▁dism	-10500
UxZWNkL	-10501
Carryforwards	-10502
:130%">&#8226;</	-10503
MjAw	-10504
OWFk	-10505
ZTRj	-10506
exch	-10507
NGRhMDdl	-10508
">0001045810</	-10509
Nzgw	-10510
▁erif	-10511
ZTYxYjNl	-10512
▁believes	-10513
▁$5	-10514
▁Audit	-10515
MTRkYTA	-10516
148	-10517
465	-10518
▁:'	-10519
▁2.00	-10520
▁1</	-10521
aeb	-10522
▁Term	-10523
▁scope	-10524
▁/>	-10525
NGYxODVhNGU	-10526
▁intelligence	-10527
xODEvZnJhZzo	-10528
Do	-10529
210	-10530
▁stated	-10531
636	-10532
sequently	-10533
ZDZk	-10534
jOmMxNGRhMDdl	-10535
ZDRl	-10536
YTVi	-10537
▁Deferred	-10538
2-8	-10539
MmYx	-10540
ZWEw	-10541
seri	-10542
▁wide	-10543
▁unauthorized	-10544
745	-10545
YTYx	-10546
plac	-10547
_10_31_2022_	-10548
NlYzpjMTRkYTA	-10549
NzQy	-10550
ZTYxYjNlMWVjZF	-10551
_20	-10552
amd	-10553
OGEw	-10554
YTFj	-10555
="21"	-10556
▁contained	-10557
▁secure	-10558
217	-10559
che	-10560
weig	-10561
=2>)</	-10562
imburs	-10563
▁shift	-10564
ustrial	-10565
▁Associ	-10566
6-9	-10567
▁original	-10568
operated	-10569
▁completion	-10570
ipeline	-10571
;">7,	-10572
posit	-10573
Agreements	-10574
-54	-10575
▁Instruments	-10576
YzVl	-10577
references	-10578
893	-10579
bbb	-10580
▁predict	-10581
▁0.0);"><	-10582
612	-10583
764	-10584
▁ff	-10585
OTgx	-10586
145	-10587
vate	-10588
▁vulner	-10589
▁planning	-10590
dollars	-10591
▁merchant	-10592
:52	-10593
MTVj	-10594
">7</	-10595
:99.853	-10596
▁Amended	-10597
:128%">$</	-10598
etroleum	-10599
808	-10600
NTgz	-10601
ZDZl	-10602
ZjRk	-10603
plementary	-10604
aed	-10605
MjJk	-10606
NWVm	-10607
▁War	-10608
▁anticipate	-10609
▁maintaining	-10610
NTRj	-10611
hhYWE	-10612
vertising	-10613
-59	-10614
628	-10615
Yjcz	-10616
lack	-10617
Oracle	-10618
">0000886	-10619
MTAw	-10620
:15.	-10621
_10">	-10622
ZWVl	-10623
▁15(	-10624
▁2013	-10625
Background	-10626
▁Organi	-10627
Properties	-10628
DIV	-10629
▁contingencies	-10630
▁expiration	-10631
DilutedShares	-10632
IP	-10633
010	-10634
▁0.08	-10635
▁candi	-10636
▁acquire	-10637
dae	-10638
YWZj	-10639
▁relate	-10640
715	-10641
YjFh	-10642
YmJl	-10643
ZTBj	-10644
NjRhM	-10645
▁Custom	-10646
emb	-10647
NmVj	-10648
SwapMember	-10649
547	-10650
NGNl	-10651
▁10.	-10652
▁2026	-10653
:1.38%;">	-10654
250</	-10655
ON	-10656
▁charged	-10657
">0	-10658
NGMx	-10659
▁regional	-10660
197	-10661
198	-10662
:144	-10663
MTRj	-10664
▁fulfill	-10665
▁subsequent	-10666
:8%;">	-10667
ott	-10668
NGUw	-10669
ZGNiODI	-10670
20181001-	-10671
▁president	-10672
MDQy	-10673
">0000886982</	-10674
888	-10675
▁Sh	-10676
MGFmOD	-10677
▁retailers	-10678
:#000000;">&#	-10679
ReceivableAnd	-10680
-01-02</	-10681
8954	-10682
="11"	-10683
FjN	-10684
ZTZm	-10685
RjYjgy	-10686
omain	-10687
▁Off	-10688
MWFhL	-10689
AssetsTax	-10690
OfAdoption	-10691
FhYV	-10692
yODA	-10693
YWFlY	-10694
OWNhMGY	-10695
ZDRhMTM	-10696
ExcessOf	-10697
20181231"><	-10698
ProductsMember	-10699
UM	-10700
▁gen	-10701
YjRkYmQy	-10702
631	-10703
NmUx	-10704
690	-10705
_9_	-10706
ccd	-10707
utual	-10708
PlanAct	-10709
855	-10710
MTJh	-10711
YTkx	-10712
jOjIw	-10713
▁integration	-10714
Rest	-10715
:27.74	-10716
ZGJkMmU	-10717
ZjMyNmU	-10718
MGFmODVhMT	-10719
859	-10720
29%;	-10721
Yzlk	-10722
▁ele	-10723
▁fight	-10724
NjhkYTYx	-10725
jOjhhYWE	-10726
▁industries	-10727
169	-10728
▁enc	-10729
▁Flows	-10730
▁solar	-10731
QxMWVjM	-10732
YTBmNWMz	-10733
ReserveAxis	-10734
ZTQxOWNhMGY	-10735
YTEzOWRm	-10736
NWExMWFhL	-10737
:99.853%"><	-10738
633	-10739
MjVh	-10740
emable	-10741
ZDExZWMz	-10742
Guarantee	-10743
▁guarantee	-10744
OTUzNjhkYTYx	-10745
uk	-10746
▁5.75	-10747
pacity	-10748
YzMwYWY	-10749
851	-10750
fbc	-10751
fea	-10752
**</	-10753
ZjNm	-10754
cost	-10755
OGQxMWVjM	-10756
▁monetary	-10757
MGFmODVhMTFhYV	-10758
OperationsAxis	-10759
uer	-10760
YThi	-10761
ecause	-10762
▁bonds	-10763
▁inten	-10764
▁contingent	-10765
213	-10766
cde	-10767
fec	-10768
YThk	-10769
ShareRepurchase	-10770
NDQw	-10771
NDhk	-10772
Yjlk	-10773
▁better	-10774
........	-10775
RjYjgyNV	-10776
NlYzoyMDk	-10777
▁innovation	-10778
MTljYTBmNWMz	-10779
NGQz	-10780
OGZl	-10781
ZDhj	-10782
reme	-10783
Pledged	-10784
)/	-10785
OTAx	-10786
rupt	-10787
▁cho	-10788
▁stand	-10789
overies	-10790
tMTAtMS	-10791
Decreases	-10792
▁difference	-10793
/10	-10794
706	-10795
▁4,	-10796
YTFk	-10797
ultural	-10798
▁referred	-10799
ZDExZWMzZGNiODI	-10800
OutstandingBasic	-10801
▁He	-10802
YTNkY	-10803
▁France	-10804
454	-10805
48%;	-10806
YTRh	-10807
YWYy	-10808
erior	-10809
▁mean	-10810
sA	-10811
20-	-10812
Consider	-10813
holesale	-10814
▁advanced	-10815
ExploratoryWell	-10816
/202	-10817
MzRh	-10818
▁valued	-10819
=""><	-10820
clude	-10821
▁dise	-10822
▁introdu	-10823
ageMember	-10824
ExtensibleList	-10825
6.5	-10826
:50	-10827
YjUy	-10828
97</	-10829
▁yet	-10830
AndTurf	-10831
&#8221;</	-10832
:100%">8-	-10833
▁arrangement	-10834
NThhM	-10835
▁expan	-10836
▁remediation	-10837
OGMw	-10838
▁children	-10839
OWJk	-10840
YjQw	-10841
34%"></	-10842
FairValueHedging	-10843
752	-10844
DeferredExpense	-10845
22%;	-10846
▁Ltd	-10847
YWZm	-10848
etermin	-10849
MjYw	-10850
summary	-10851
▁maximum	-10852
ls	-10853
▁categories	-10854
NlM	-10855
Purchased	-10856
▁leverage	-10857
▁self	-10858
▁Consumer	-10859
marketable	-10860
271	-10861
9-9	-10862
▁ri	-10863
YTMy	-10864
unctions	-10865
ffa	-10866
InterestCost	-10867
NDQz	-10868
ered	-10869
▁conducted	-10870
)(	-10871
Equ	-10872
0101_	-10873
▁achie	-10874
Project	-10875
▁Caterpillar	-10876
="7	-10877
MGJm	-10878
NzQw	-10879
plemented	-10880
SharesIssued	-10881
,000	-10882
MTll	-10883
MmFj	-10884
NTZk	-10885
ZDdm	-10886
Paper	-10887
heigh	-10888
▁Union	-10889
▁block	-10890
▁Member	-10891
▁obtained	-10892
▁reconcil	-10893
;31,	-10894
▁run	-10895
earing	-10896
▁focused	-10897
▁positive	-10898
▁supplier	-10899
046	-10900
LongLived	-10901
fn	-10902
:0.500	-10903
▁German	-10904
▁Federal	-10905
769	-10906
isable	-10907
">00003549	-10908
="9	-10909
:0.494%"/><	-10910
▁Up	-10911
ZThkM	-10912
laware	-10913
▁applied	-10914
▁economy	-10915
104	-10916
bce	-10917
370	-10918
alent	-10919
▁Foreign	-10920
▁efficiency	-10921
xOTAvZnJhZzo	-10922
AndAdditional	-10923
MTQx	-10924
YzMjZl	-10925
128	-10926
bfc	-10927
dcb	-10928
utr	-10929
NWFk	-10930
▁Mar	-10931
YTdl	-10932
EBA	-10933
eav	-10934
jOjZj	-10935
▁tion	-10936
">10</	-10937
san	-10938
YzZDg	-10939
YzNjNjk	-10940
▁Service	-10941
">0000354950</	-10942
:#000000;">&#32;	-10943
NDRh	-10944
▁Valero	-10945
▁however	-10946
ZGJm	-10947
OGMzYzY	-10948
YzljZWQ	-10949
RjZjMyNmU	-10950
417	-10951
784	-10952
ODZk	-10953
XzQtMi	-10954
NetOfTaxPortion	-10955
ZjRl	-10956
ZjZiMjRk	-10957
OWNlZDY	-10958
▁leadership	-10959
20181001-201909	-10960
PU	-10961
MDAz	-10962
Mzhl	-10963
ZGRk	-10964
▁totaled	-10965
TransactionAnd	-10966
AssetImpairment	-10967
548	-10968
YearFour	-10969
▁ConocoPhillips	-10970
ict	-10971
ZDFk	-10972
▁Accord	-10973
▁workers	-10974
(0,0,0,1)	-10975
▁assessing	-10976
890	-10977
:8.42	-10978
▁regions	-10979
Intrinsic	-10980
32-	-10981
bbd	-10982
▁1.	-10983
9679	-10984
economic	-10985
YzMjZlOGMzYzY	-10986
:-10	-10987
▁view	-10988
OTIxYTg	-10989
;">-</	-10990
▁settled	-10991
▁Liabilities	-10992
▁experiences	-10993
ZjZiMjRkNThhM	-10994
227	-10995
898	-10996
OTNm	-10997
OWVi	-10998
829224	-10999
ZDNkNl	-11000
OWVhMGI	-11001
YmFkMGU	-11002
▁another	-11003
20201101"	-11004
MjJm	-11005
NDBkOGE	-11006
tension	-11007
▁enacted	-11008
▁Pakistan	-11009
RiskByTypeAxis	-11010
fed	-11011
ZjEy	-11012
▁ari	-11013
XzctMS	-11014
YWQwZThkM	-11015
jOjZjOWNlZDY	-11016
865	-11017
bdb	-11018
▁da	-11019
ZjllYTBi	-11020
▁impairments	-11021
eron	-11022
consolidated	-11023
yn	-11024
338	-11025
ITY	-11026
Yjli	-11027
jOjYzZDg	-11028
▁vest	-11029
▁Technology	-11030
NmFj	-11031
▁stri	-11032
Transportation	-11033
OWRi	-11034
▁der	-11035
MzRmOWVhMGI	-11036
lease	-11037
289	-11038
OTcz	-11039
lines	-11040
▁entire	-11041
ercisable	-11042
ZjllYTBiNGI	-11043
351	-11044
7-9	-11045
▁rac	-11046
▁targets	-11047
▁proposed	-11048
YjRiYWQwZThkM	-11049
655	-11050
ddb	-11051
Yzlh	-11052
ZWFi	-11053
▁THE	-11054
Lower	-11055
NjNh	-11056
:6%;"></	-11057
eab	-11058
MDdi	-11059
NTUz	-11060
InExcessOf	-11061
IncomeNetOfTax	-11062
21-	-11063
850	-11064
▁8,	-11065
MjMy	-11066
NTlm	-11067
nvda	-11068
▁Code	-11069
adf	-11070
▁Pl	-11071
OWEz	-11072
xLTMx	-11073
AdjustmentsTo	-11074
▁men	-11075
FairValueGross	-11076
MWUx	-11077
road	-11078
:1.15	-11079
RiskBy	-11080
soft	-11081
ritten	-11082
Dividend	-11083
/14	-11084
Latin	-11085
MjFhODgw	-11086
ZmJhNzFh	-11087
▁combined	-11088
684	-11089
ZGQx	-11090
AuthorityAxis	-11091
AccumulatedLoss	-11092
348	-11093
cae	-11094
">8</	-11095
▁respond	-11096
>2020-09-	-11097
12-	-11098
-114	-11099
Mjdi	-11100
ODMw	-11101
enez	-11102
▁fee	-11103
Event	-11104
NzcyL	-11105
▁2017.	-11106
▁#333333;"><	-11107
OTNh	-11108
ZDNl	-11109
with	-11110
XzItMy	-11111
▁Officers	-11112
MjFhODgwOTg	-11113
▁Activities	-11114
Rf	-11115
NGNi	-11116
stit	-11117
YTcxYTA	-11118
Building	-11119
760	-11120
NzNl	-11121
peri	-11122
MDRkYzQ	-11123
oven	-11124
YTcw	-11125
YTgz	-11126
256	-11127
OTJi	-11128
;">14	-11129
vestit	-11130
July	-11131
▁pop	-11132
▁Musli	-11133
▁borrowing	-11134
(0,0,0,1);"><	-11135
AndFinanceLease	-11136
253	-11137
815	-11138
apt	-11139
:14.0	-11140
.900%"></	-11141
8;	-11142
701	-11143
dded	-11144
appro	-11145
CorporateNon	-11146
NDMx	-11147
YTIz	-11148
▁benef	-11149
gu	-11150
9679;</	-11151
▁evaluated	-11152
NmZiYTcxYTA	-11153
ZmJhNzFhMDRkYzQ	-11154
NoncurrentAssets	-11155
">20	-11156
▁Index	-11157
▁board	-11158
:120%">%</	-11159
bbe	-11160
ODRk	-11161
OThk	-11162
feitures	-11163
CommercialPaper	-11164
ffe	-11165
MDlk	-11166
▁weak	-11167
OriginatedIn	-11168
▁Comprehensive	-11169
toc	-11170
202-	-11171
▁Some	-11172
▁tari	-11173
Standards	-11174
-05	-11175
610	-11176
els	-11177
▁Brand	-11178
▁reductions	-11179
MTgx	-11180
MTIzNW	-11181
XzYtMy	-11182
899	-11183
ZTli	-11184
▁disclosed	-11185
838	-11186
YWVi	-11187
:100%">(1,	-11188
▁plaintiffs	-11189
eec	-11190
▁growing	-11191
Benchmark	-11192
▁documents	-11193
123	-11194
396	-11195
MWUz	-11196
▁nam	-11197
▁sites	-11198
provements	-11199
22</	-11200
MmEx	-11201
ODcy	-11202
OWYy	-11203
ousand	-11204
▁install	-11205
qualified	-11206
GainLossMember	-11207
ByDisposalGroup	-11208
806	-11209
MDNk	-11210
NDcx	-11211
ingdom	-11212
▁&#160;</	-11213
NjYw	-11214
Page	-11215
211	-11216
595	-11217
IVE	-11218
▁hier	-11219
NDkw	-11220
ZTAz	-11221
720	-11222
PlanNameAxis	-11223
ion	-11224
YTlj	-11225
▁Series	-11226
▁influence	-11227
YjRm	-11228
YmJi	-11229
YzBm	-11230
MzFlYzQ	-11231
requent	-11232
438	-11233
643	-11234
ODBi	-11235
xMTgvZnJhZzo	-11236
▁carryforwards	-11237
BmL	-11238
MDkx	-11239
MjUw	-11240
OTZi	-11241
ZDhhNjU	-11242
▁indica	-11243
ZjZmNTMx	-11244
▁representing	-11245
LegalEntityAxis	-11246
:13.02	-11247
ZjcwZl	-11248
CompanyMember	-11249
ServicePeriod	-11250
933	-11251
Yet	-11252
Njlh	-11253
YmVm	-11254
jOmIz	-11255
MmVmNmY	-11256
raw	-11257
55</	-11258
Yzgw	-11259
▁hereby	-11260
MDEyMzVi	-11261
distribu	-11262
RelatedTo	-11263
YearThree	-11264
RA	-11265
575	-11266
:625.1	-11267
▁Policies	-11268
ebd	-11269
NDFi	-11270
Yjll	-11271
Maturities	-11272
▁hierarchy	-11273
MzJlZjZmNTMx	-11274
476	-11275
gis	-11276
YmEy	-11277
">13</	-11278
xLTMxNTM	-11279
putational	-11280
BenchmarkAxis	-11281
PP	-11282
501	-11283
897	-11284
YjVj	-11285
Contents	-11286
418	-11287
47"	-11288
eaf	-11289
JmNzBmL	-11290
64-	-11291
NTFk	-11292
OTdh	-11293
OWZj	-11294
">14,	-11295
▁groups	-11296
▁audited	-11297
20210930"	-11298
NTUyMDEyMzVi	-11299
▁institution	-11300
bfd	-11301
">26	-11302
▁type	-11303
▁dete	-11304
NTIwMTIzNW	-11305
▁cla	-11306
▁Coca	-11307
:10.595	-11308
conomic	-11309
▁incremental	-11310
NGIz	-11311
acro	-11312
▁treasur	-11313
▁Governance	-11314
jOmIzMmVmNmY	-11315
MzJlZjZmNTMxZWM	-11316
:63	-11317
27%;	-11318
:7.7	-11319
388	-11320
_24	-11321
train	-11322
OGZj	-11323
caa	-11324
ZTVk	-11325
more	-11326
▁Systems	-11327
MGYw	-11328
Retail	-11329
▁hour	-11330
yMjAvZnJhZzo	-11331
127"	-11332
NzBj	-11333
JlNDZm	-11334
avings	-11335
6">&#8212;</	-11336
CreditLosses	-11337
Ff	-11338
834	-11339
▁Bo	-11340
;">0	-11341
YTJj	-11342
mart	-11343
:400	-11344
RealEstateMember	-11345
910	-11346
ODVk	-11347
OWIx	-11348
ah	-11349
▁affecting	-11350
GainLossBefore	-11351
OWRh	-11352
;">$1	-11353
Vesting	-11354
▁records	-11355
AG	-11356
900	-11357
545	-11358
▁3"	-11359
▁Number	-11360
▁export	-11361
▁taxable	-11362
ODNl	-11363
YWEz	-11364
&#160;13	-11365
Incentive	-11366
dad	-11367
MjMx	-11368
ZDNh	-11369
Report	-11370
▁underline	-11371
ODQx	-11372
▁start	-11373
▁Drivers	-11374
077	-11375
317	-11376
ille	-11377
funded	-11378
:120%;">	-11379
423	-11380
474	-11381
eam	-11382
MTli	-11383
MzBk	-11384
Nature	-11385
▁indirect	-11386
626	-11387
MGFj	-11388
▁10,	-11389
▁degree	-11390
686	-11391
OGVh	-11392
YWEw	-11393
ZGMx	-11394
ZmVl	-11395
NmYxNV	-11396
YTRmYTM	-11397
ZDJkYjA	-11398
▁impose	-11399
RiskMember	-11400
▁Resources	-11401
eed	-11402
:6.9	-11403
MWFhNGZh	-11404
80-	-11405
ORS	-11406
Capacity	-11407
MTZkMmRi	-11408
System	-11409
NWIzMGI	-11410
:120%">1	-11411
YjViMzBi	-11412
▁treasury	-11413
\'	-11414
">1,7	-11415
estern	-11416
MzFhYTRmYTM	-11417
:37	-11418
dfa	-11419
▁5,	-11420
NGQy	-11421
lean	-11422
▁News	-11423
▁dies	-11424
▁retro	-11425
NlYzpiZTQ	-11426
OWJm	-11427
▁Debt	-11428
Requisite	-11429
▁Framework	-11430
1-8	-11431
obs	-11432
Njcw	-11433
YjEz	-11434
;">2</	-11435
atisfaction	-11436
MzliNWIzMGI	-11437
527	-11438
927	-11439
fee	-11440
ODYz	-11441
PriorPeriod	-11442
▁generation	-11443
MDQzMWFhNGZh	-11444
JlNDZmMTZkMmRi	-11445
▁ef	-11446
922	-11447
95"	-11448
omm	-11449
▁25,	-11450
Seven	-11451
bcd	-11452
59</	-11453
ZGZh	-11454
racy	-11455
▁Prior	-11456
eduction	-11457
YjViMzBiNmYxNV	-11458
YTAy	-11459
Small	-11460
▁allows	-11461
:25	-11462
cdb	-11463
9098	-11464
▁3%;	-11465
:100%">11	-11466
528	-11467
ZWEz	-11468
gency	-11469
▁employment	-11470
vanced	-11471
Eq	-11472
398	-11473
531">	-11474
:59	-11475
Update	-11476
▁objec	-11477
MTQy	-11478
:100%">10-	-11479
▁expansion	-11480
;">&#9679;</	-11481
NmJl	-11482
xLTg	-11483
QzYTBm	-11484
01_2018_	-11485
tMC	-11486
:100%">7,	-11487
NDVl	-11488
750</	-11489
;">1.	-11490
:115%;	-11491
▁&#	-11492
5597	-11493
XzMtMi	-11494
-04	-11495
YmEw	-11496
▁productivity	-11497
jOjQ	-11498
▁chief	-11499
-07	-11500
620	-11501
802	-11502
830	-11503
YzBh	-11504
parties	-11505
16%;	-11506
OGUy	-11507
Amendment	-11508
Transfers	-11509
Debentures	-11510
MmYw	-11511
Process	-11512
Deposits	-11513
partment	-11514
ZlOWVh	-11515
MWEw	-11516
OGFh	-11517
:10.6	-11518
colog	-11519
vention	-11520
NWRh	-11521
OWNj	-11522
YTZj	-11523
YzFh	-11524
ZTRlM	-11525
bedded	-11526
895421</	-11527
▁revolving	-11528
▁Technologies	-11529
48"	-11530
816	-11531
1391	-11532
Njhh	-11533
OWJh	-11534
NTNhN	-11535
YTdmZTll	-11536
alifying	-11537
ya	-11538
242	-11539
three	-11540
EX	-11541
:58	-11542
-145	-11543
;">8-	-11544
anged	-11545
ZWNhNF	-11546
▁accur	-11547
NhNTNhN	-11548
44%;	-11549
YTNjYTUz	-11550
▁considering	-11551
ZlOWVhYWFlY	-11552
64"	-11553
ffd	-11554
:48.	-11555
IncomeAxis	-11556
CompensationCost	-11557
NDgy	-11558
OTVm	-11559
ZTNjNzE	-11560
xLTEtMS	-11561
▁functional	-11562
MTAy	-11563
Nzkx	-11564
ZDgz	-11565
Cloud	-11566
▁FORM	-11567
xLTEtMQ	-11568
141	-11569
▁PR	-11570
ZmVi	-11571
674	-11572
OTNk	-11573
OTVi	-11574
▁Mart	-11575
▁week	-11576
62%;">	-11577
PMorgan	-11578
▁agreed	-11579
">0000895421</	-11580
:9.28	-11581
▁metrics	-11582
YTdmZTllYWFh	-11583
▁Disclosures	-11584
>2021-01-0	-11585
▁reportable	-11586
ODUy	-11587
XzUtMi	-11588
MTcwNjRhM	-11589
StandardsUpdate	-11590
22;	-11591
32,	-11592
NThk	-11593
YjIz	-11594
ZDBj	-11595
ruise	-11596
▁difficul	-11597
▁leader	-11598
LongLivedAssets	-11599
753	-11600
99</	-11601
/114	-11602
57</	-11603
▁mal	-11604
299	-11605
NGVi	-11606
ZGZk	-11607
▁goals	-11608
-01	-11609
717	-11610
NmMx	-11611
PrincipalIn	-11612
2724	-11613
▁Sheet	-11614
▁ventures	-11615
kK	-11616
ceb	-11617
NDVk	-11618
OGYx	-11619
ZGRh	-11620
States	-11621
▁intend	-11622
-07-01</	-11623
/1141391	-11624
▁delivered	-11625
186	-11626
MjBl	-11627
">1,4	-11628
:0.557	-11629
▁repurchased	-11630
30_2023_	-11631
:0.532%"></	-11632
>2019-12-29</	-11633
252	-11634
:5.9	-11635
▁cur	-11636
▁reflecting	-11637
453	-11638
Employer	-11639
▁footnote	-11640
YWJsZXJhbmdlOjBh	-11641
verance	-11642
Scenario	-11643
111	-11644
75-	-11645
YmIy	-11646
ZTQz	-11647
Zjgz	-11648
▁Egypt	-11649
NTZi	-11650
OneYear	-11651
Borrowing	-11652
eductible	-11653
▁collabor	-11654
:17.	-11655
MGNm	-11656
▁old	-11657
NmQz	-11658
▁discontinued	-11659
MzEz	-11660
MTRkMj	-11661
▁entitled	-11662
heed	-11663
SegmentReporting	-11664
caf	-11665
hood	-11666
Australi	-11667
OP	-11668
▁2.	-11669
Filed	-11670
▁="3"	-11671
▁Health	-11672
▁Independent	-11673
MzEy	-11674
;">15	-11675
▁copy	-11676
▁adopt	-11677
▁arise	-11678
▁publicly	-11679
HealthCover	-11680
June	-11681
▁bold	-11682
prised	-11683
fl	-11684
ODUx	-11685
ODhm	-11686
▁distrib	-11687
▁planned	-11688
▁regulators	-11689
▁flex	-11690
▁Martin	-11691
▁grants	-11692
▁letter	-11693
Eliminations	-11694
▁Association	-11695
▁Incorporated	-11696
NWZi	-11697
="12"	-11698
▁implemented	-11699
:-7	-11700
MjZh	-11701
NTgx	-11702
Consideration	-11703
dfb	-11704
-03-	-11705
01%;	-11706
ZDkz	-11707
▁immedi	-11708
ODNk	-11709
ODlj	-11710
28"><	-11711
undred	-11712
▁perce	-11713
33,	-11714
usual	-11715
20193</	-11716
▁series	-11717
▁excluded	-11718
▁Australian	-11719
UnrealizedGain	-11720
-56	-11721
832	-11722
Gas	-11723
ODBl	-11724
▁Due	-11725
20220531"	-11726
:100%">14	-11727
▁Internet	-11728
38-	-11729
809	-11730
-08-	-11731
43%;	-11732
NDRl	-11733
▁Based	-11734
▁premium	-11735
▁criminal	-11736
▁healthcare	-11737
-115	-11738
▁sex	-11739
NotYet	-11740
▁lines	-11741
▁location	-11742
EG	-11743
NTQw	-11744
OWUz	-11745
196	-11746
xLTUxMTg	-11747
▁commence	-11748
-23	-11749
ath	-11750
▁Do	-11751
MzEw	-11752
Yjcx	-11753
ament	-11754
dcf	-11755
▁',	-11756
ODZi	-11757
▁ten	-11758
Ne	-11759
17%;	-11760
9746	-11761
">0000320193</	-11762
284	-11763
36-	-11764
:67	-11765
FvNi	-11766
Realized	-11767
MjNh	-11768
▁pat	-11769
▁expire	-11770
NDhm	-11771
▁write	-11772
533	-11773
MDgw	-11774
▁advant	-11775
▁imposed	-11776
212	-11777
522	-11778
OTMw	-11779
OWIw	-11780
ZGVj	-11781
NTYzOA	-11782
▁Litigation	-11783
▁contribution	-11784
:32.	-11785
▁clear	-11786
68"	-11787
NGNm	-11788
YTMx	-11789
YjFm	-11790
207	-11791
MGRi	-11792
MTJk	-11793
ODgz	-11794
YWUw	-11795
ZDFm	-11796
nuity	-11797
▁#000000"	-11798
▁Of	-11799
27"><	-11800
▁Limited	-11801
▁collaboration	-11802
sD	-11803
NzZm	-11804
wear	-11805
alues	-11806
▁Pfizer	-11807
Payables	-11808
mentAxis	-11809
:120%">.</	-11810
ZTBl	-11811
▁Work	-11812
AfterTax	-11813
▁tariffs	-11814
urtailments	-11815
MjQx	-11816
ODZh	-11817
test	-11818
▁realize	-11819
yMDgvZnJhZzpj	-11820
18-	-11821
aap	-11822
-135	-11823
MGEw	-11824
NGRi	-11825
from	-11826
▁Revenues	-11827
OGJl	-11828
YmZj	-11829
ecb	-11830
ulatory	-11831
Mjgy	-11832
NDcw	-11833
YTJiMjM	-11834
▁offices	-11835
▁publish	-11836
_10_30_2023_	-11837
090	-11838
MmUz	-11839
OGYz	-11840
5;"><	-11841
NDNmL	-11842
▁West	-11843
-01-29</	-11844
OTZlNGZi	-11845
ConocoPhillips	-11846
LossContingency	-11847
io	-11848
131	-11849
JiNTQ	-11850
OWRjM	-11851
▁pass	-11852
▁rede	-11853
entral	-11854
bdd	-11855
NThi	-11856
EyYjIz	-11857
NjQzZl	-11858
Target	-11859
ZmIwNDc	-11860
▁campaign	-11861
,<	-11862
294	-11863
794	-11864
MjNi	-11865
NDdh	-11866
_20210	-11867
▁Target	-11868
▁acceptance	-11869
SharesMember	-11870
acroeconomic	-11871
yMDUvZnJhZzo	-11872
▁counterparty	-11873
MGZl	-11874
▁Times	-11875
▁Turkey	-11876
EyYjIzNjhm	-11877
OTZlNGZiMDQ	-11878
ZGMzYTJiMjM	-11879
▁play	-11880
OWZl	-11881
ZDZi	-11882
100</	-11883
▁disputes	-11884
▁:#000000;	-11885
▁transferred	-11886
fde	-11887
YjYy	-11888
ckheed	-11889
cbc	-11890
daf	-11891
YTNi	-11892
RhMmI	-11893
▁licensees	-11894
ox	-11895
41"	-11896
87-	-11897
NTkz	-11898
There	-11899
▁Amendment	-11900
915	-11901
YTll	-11902
▁Google	-11903
31_2017_	-11904
Conversion	-11905
▁objectives	-11906
Mjhl	-11907
Ther	-11908
37-	-11909
MzRj	-11910
exas	-11911
EyYjIzNjhmNjQzZl	-11912
036	-11913
383	-11914
oth	-11915
MjUx	-11916
eather	-11917
VI	-11918
MWVh	-11919
eing	-11920
▁assist	-11921
▁document	-11922
▁packaging	-11923
NetInvestmentIn	-11924
atic	-11925
ebe	-11926
NGEz	-11927
:1.50	-11928
065	-11929
MmIx	-11930
▁Standards	-11931
ODJj	-11932
MGNi	-11933
YmVl	-11934
">1,6	-11935
:#000	-11936
▁SolarCity	-11937
Nonrecurring	-11938
UG	-11939
-58	-11940
ccb	-11941
aapl	-11942
▁promo	-11943
Oil	-11944
cfe	-11945
dfe	-11946
ima	-11947
NGRl	-11948
▁Date	-11949
ledge	-11950
▁TABLE	-11951
▁coven	-11952
▁might	-11953
2020012	-11954
:#00000	-11955
PeriodOfAdoption	-11956
543	-11957
-155	-11958
17-	-11959
519	-11960
-116	-11961
_3">	-11962
▁deli	-11963
distributed	-11964
-118	-11965
▁ultimate	-11966
xNzUvZnJhZzo	-11967
Vs	-11968
NjQy	-11969
OGFk	-11970
▁MOT	-11971
NGIwY	-11972
ministration	-11973
>2020-11-01</	-11974
:2%;	-11975
NDcy	-11976
ZDgy	-11977
&#160;2,	-11978
▁computer	-11979
MDgy	-11980
YmFl	-11981
comes	-11982
▁jurisdiction	-11983
▁semiconductor	-11984
8239	-11985
inte	-11986
ZjZiY	-11987
68%;">	-11988
XzQtNS	-11989
▁concluded	-11990
-29"	-11991
Nzcz	-11992
ZGIw	-11993
ZTQy	-11994
960	-11995
20211003"	-11996
▁involving	-11997
ISK	-11998
YmMz	-11999
▁Accordingly	-12000
MTYx	-12001
YmQw	-12002
NmFkNjg	-12003
OTBlZTc	-12004
ContractsMember	-12005
▁Ge	-12006
ZDRk	-12007
XzctMy	-12008
Em	-12009
488	-12010
DueTo	-12011
▁invested	-12012
▁#8	-12013
OTEw	-12014
179	-12015
810	-12016
East	-12017
OGRl	-12018
OTJh	-12019
Zero	-12020
ZDIyYjU	-12021
eration	-12022
▁concerns	-12023
SubsequentEvent	-12024
Uq	-12025
861	-12026
ODNj	-12027
SG	-12028
OTZk	-12029
NzkwZWU	-12030
ibility	-12031
MTRkMjJiNTQ	-12032
667	-12033
2021120	-12034
MGNhNmFkNjg	-12035
MGQw	-12036
:11.9	-12037
▁protec	-12038
▁reviews	-12039
▁Registered	-12040
574	-12041
ball	-12042
▁reputational	-12043
611	-12044
fce	-12045
="4"></	-12046
IntrinsicValue	-12047
ards	-12048
11;</	-12049
icial	-12050
duction	-12051
20210201-	-12052
▁6,	-12053
NWRm	-12054
elines	-12055
Included	-12056
▁culture	-12057
▁franchise	-12058
827	-12059
:29	-12060
:51	-12061
MzUy	-12062
Mzgw	-12063
NmFi	-12064
YjJh	-12065
ZDlh	-12066
▁still	-12067
NjcyMTRkMjJiNTQ	-12068
683	-12069
NDhi	-12070
NTJl	-12071
ZWUw	-12072
">9</	-12073
OGIxN	-12074
▁suffer	-12075
timately	-12076
Statutory	-12077
EntitiesMember	-12078
▁40	-12079
azon	-12080
Six	-12081
cda	-12082
YWIz	-12083
▁represented	-12084
▁31	-12085
">25	-12086
ODgw	-12087
YjIw	-12088
&#160;27,	-12089
▁assessments	-12090
-119	-12091
▁just	-12092
84%;">	-12093
:1.9%;	-12094
▁satisfy	-12095
NjRiMGNhNmFkNjg	-12096
16-	-12097
NjFh	-12098
:9%;">	-12099
20200928-	-12100
▁impaired	-12101
xOTkvZnJhZzo	-12102
847	-12103
cac	-12104
▁Su	-12105
NTJk	-12106
NjFl	-12107
OWJj	-12108
html	-12109
grade	-12110
LessThan	-12111
OGVj	-12112
ZTNh	-12113
Impact	-12114
ViMWJk	-12115
▁implementation	-12116
Gm	-12117
MjEx	-12118
ZmQx	-12119
aded	-12120
:1.41%;	-12121
045	-12122
MzJh	-12123
That	-12124
;">8,	-12125
PaidNet	-12126
▁offered	-12127
NmJjZG	-12128
;">001-	-12129
timates	-12130
▁offers	-12131
jOmMxZmNm	-12132
xMjEvZnJhZzo	-12133
443	-12134
MWFkZDg	-12135
ODEy	-12136
NTRiN	-12137
>2023-12-30</	-12138
483	-12139
ZjIz	-12140
xLTk	-12141
▁III	-12142
EyYjQwY	-12143
ZDFhZGQ	-12144
:#000000	-12145
MGNlYjFi	-12146
MWZjZjZiY	-12147
Productivity	-12148
019	-12149
ubt	-12150
Nzhm	-12151
YjVl	-12152
YmFh	-12153
▁motion	-12154
:48.900%"/><	-12155
PlanInterestCost	-12156
Jf	-12157
740	-12158
803	-12159
85-	-12160
VmM	-12161
NWVk	-12162
▁organ	-12163
xLTEtMjA	-12164
510	-12165
OWMz	-12166
▁annually	-12167
:19	-12168
▁"3"	-12169
">100</	-12170
jOmMxZmNmNmJjZG	-12171
-20"	-12172
YzNk	-12173
▁cyc	-12174
xLTEtMTQ	-12175
ViMWJkMWFkZDg	-12176
-21"	-12177
:5.7	-12178
MTQz	-12179
NmUy	-12180
▁six	-12181
▁appeal	-12182
▁Markets	-12183
TA	-12184
-107	-12185
MDBh	-12186
MDIy	-12187
Mjcx	-12188
Mzcy	-12189
NDgx	-12190
Cross	-12191
▁Kingdom	-12192
Case	-12193
YzNl	-12194
▁Lib	-12195
904	-12196
:44	-12197
MzZh	-12198
NGVh	-12199
ZTJi	-12200
;">3</	-12201
▁Shares	-12202
▁Microsoft	-12203
AdjustmentsFor	-12204
NDIy	-12205
teen	-12206
:-10.0	-12207
▁purch	-12208
AssetsFairValue	-12209
ZTJj	-12210
▁IRS	-12211
cology	-12212
584	-12213
NTYw	-12214
▁Option	-12215
sidential	-12216
▁investigation	-12217
MGNlYjFiZDFhZGQ	-12218
:8.9	-12219
OTYw	-12220
>2019-11-03</	-12221
>2020-12-26</	-12222
NlYzpjMWZjZjZiY	-12223
.3%;	-12224
:2.7	-12225
283	-12226
bfa	-12227
cdf	-12228
NDlh	-12229
Segments	-12230
+</	-12231
42.	-12232
MmVi	-12233
NzZk	-12234
▁French	-12235
▁replac	-12236
▁constant	-12237
6-8	-12238
736	-12239
Sol	-12240
OTFh	-12241
ZDYx	-12242
ZjFk	-12243
ZmEy	-12244
▁One	-12245
▁meaning	-12246
grated	-12247
iliated	-12248
▁office	-12249
90-	-12250
902	-12251
-110	-12252
Commission	-12253
▁reconciliation	-12254
mon	-12255
NDIz	-12256
▁tro	-12257
Transferred	-12258
yMzI	-12259
▁10.1	-12260
▁fire	-12261
▁error	-12262
AndServices	-12263
NextTwelveMonths	-12264
295	-12265
905	-12266
49%;	-12267
322	-12268
aaf	-12269
dca	-12270
NjYx	-12271
ODhi	-12272
26522;	-12273
20191229"	-12274
822	-12275
▁depending	-12276
▁reliability	-12277
▁restaurants	-12278
>2021-12-25</	-12279
982	-12280
pot	-12281
:38.	-12282
NmMy	-12283
:13.8	-12284
NmRlY	-12285
▁video	-12286
wi	-12287
RGB	-12288
▁Ob	-12289
OWVk	-12290
▁Also	-12291
▁renewable	-12292
▁individuals	-12293
-74	-12294
MThi	-12295
YWUx	-12296
▁1934,	-12297
▁spread	-12298
>2019-12-28</	-12299
/201	-12300
2991	-12301
Yjky	-12302
ZWQw	-12303
ZmNi	-12304
▁forces	-12305
aef	-12306
osp	-12307
NWJj	-12308
OTkw	-12309
izing	-12310
:0.544	-12311
located	-12312
discounted	-12313
▁improvement	-12314
onouncementsAxis	-12315
▁_	-12316
911	-12317
MTBh	-12318
▁Ret	-12319
&#160;&	-12320
▁9,	-12321
Tran	-12322
IyNDBm	-12323
MzVjOTQ	-12324
ZjBhOTE	-12325
▁facilit	-12326
▁managed	-12327
FkM	-12328
Mzdh	-12329
YjMy	-12330
ODYwL	-12331
uting	-12332
▁coffee	-12333
YzliOTBl	-12334
Satisfaction	-12335
▁Dr	-12336
▁Ev	-12337
ades	-12338
▁show	-12339
▁outcomes	-12340
754	-12341
866	-12342
iii	-12343
whi	-12344
:34.	-12345
OWFj	-12346
YmJjMD	-12347
MGVmMGE	-12348
ODQyZTY	-12349
ZTkwYjk	-12350
YmMwNmRlY	-12351
049	-12352
dea	-12353
MzZl	-12354
float	-12355
cceler	-12356
▁Costs	-12357
NzhjYmY	-12358
OTRjOWI	-12359
ercises	-12360
NDJlNjZi	-12361
▁residual	-12362
PlanServiceCost	-12363
BO	-12364
-139	-12365
Chief	-12366
▁Sheets	-12367
MjQwZmYz	-12368
IyNDBmZjNl	-12369
▁wholesale	-12370
258	-12371
MGMy	-12372
Mjgw	-12373
NmJh	-12374
OGNj	-12375
years	-12376
ZkZWNk	-12377
&#160;<	-12378
OGIyZDg	-12379
roadcom	-12380
Ti	-12381
714	-12382
ZmRm	-12383
YzliOTBlZjBhOTE	-12384
254	-12385
igned	-12386
Ob	-12387
060	-12388
88-	-12389
:-24	-12390
ZWIy	-12391
EwZjE	-12392
Series	-12393
YjJkODYwL	-12394
CommonClass	-12395
xMDYvZnJhZzo	-12396
NDJlNjZiMzVjOTQ	-12397
OGNi	-12398
:#0070	-12399
portion	-12400
ZkZWNkNzc	-12401
OTBiOTRjOWI	-12402
▁ultimately	-12403
xNTcvZnJhZzo	-12404
181	-12405
▁super	-12406
jOjIyNDBmZjNl	-12407
YzZh	-12408
▁2011	-12409
XzUtNS	-12410
▁officials	-12411
NjhiYmMwNmRlY	-12412
NlYzoyMjQwZmYz	-12413
868	-12414
▁VIEs	-12415
gricultural	-12416
▁defendants	-12417
▁17	-12418
YjBk	-12419
▁plac	-12420
OThiOTA	-12421
▁talent	-12422
▁calculation	-12423
▁Syrian	-12424
▁accruals	-12425
:47	-12426
YTBj	-12427
YzdmM	-12428
XzMtNS	-12429
33-	-12430
▁NA	-12431
▁por	-12432
MzMy	-12433
NWYw	-12434
183	-12435
MjJi	-12436
▁defini	-12437
▁equivalent	-12438
YmJjMDZkZWNkNzc	-12439
▁mand	-12440
YWJsZXJhbmdlOjcz	-12441
MDMw	-12442
287	-12443
313	-12444
MDky	-12445
MWZh	-12446
;">2.	-12447
▁Qual	-12448
▁comprised	-12449
Sh	-12450
ODJk	-12451
ardi	-12452
▁rul	-12453
Adjusted	-12454
▁macroeconomic	-12455
MDcy	-12456
YzJj	-12457
CostOfGoods	-12458
37,	-12459
XzMw	-12460
ZDNi	-12461
ques	-12462
quare	-12463
Received	-12464
easurements	-12465
ana	-12466
MzAw	-12467
YTNl	-12468
YmRm	-12469
630">	-12470
xLTIw	-12471
▁assessed	-12472
OtherOperating	-12473
▁Supplementary	-12474
ExpectedTimingOf	-12475
▁operated	-12476
SalesRevenue	-12477
NER	-12478
dep	-12479
ZWUx	-12480
▁weather	-12481
Marketing	-12482
Redemption	-12483
:32.234%"/><	-12484
ExpenseMember	-12485
8-8	-12486
;">9,	-12487
NlODQ	-12488
These	-12489
dac	-12490
NmJk	-12491
ZWRm	-12492
artDate	-12493
▁transfers	-12494
917	-12495
uge	-12496
Mjhm	-12497
ZTZh	-12498
ZTgw	-12499
▁trave	-12500
5-9	-12501
icf	-12502
NDJh	-12503
YjAz	-12504
▁relief	-12505
hN	-12506
61%;	-12507
ByNature	-12508
▁functions	-12509
039	-12510
MDVm	-12511
Njdh	-12512
ZWNi	-12513
ZjFh	-12514
▁2</	-12515
">15,	-12516
▁Lowe	-12517
ZTkxNz	-12518
▁break	-12519
20201226"><	-12520
Yes	-12521
OGEy	-12522
YTIw	-12523
▁/><	-12524
▁[	-12525
259	-12526
OTEx	-12527
▁consequ	-12528
This	-12529
duct	-12530
margi	-12531
ZDcwNmI	-12532
xNTEvZnJhZzo	-12533
▁Stockholders	-12534
ops	-12535
NzJh	-12536
ZTdm	-12537
YWMzYTc	-12538
YzhkOWQ	-12539
ZTkxNzRj	-12540
:100%">8,	-12541
Projected	-12542
;">&#16	-12543
MDZiNDc	-12544
QzYTBmMTY	-12545
OWMyMF	-12546
EmployeeSe	-12547
'"	-12548
NCE	-12549
ODNm	-12550
NzllL	-12551
36,	-12552
988	-12553
NmNj	-12554
ZjAx	-12555
nown	-12556
2019;	-12557
xLTcy	-12558
▁vested	-12559
YTMwZjBm	-12560
▁counterparties	-12561
Zjhh	-12562
ager	-12563
ZTkxNzRjOGQ	-12564
:39	-12565
MjAz	-12566
itch	-12567
jOmFjN	-12568
nameen	-12569
&#8211;</	-12570
alitative	-12571
095	-12572
293	-12573
gan	-12574
46%;">	-12575
Credits	-12576
YzlmNDI	-12577
▁Delaware	-12578
jOjQzYTBmMTY	-12579
Cybersecurity	-12580
HG	-12581
:0.98	-12582
YzIwL	-12583
MzBhMzBm	-12584
YzNhNzllL	-12585
257	-12586
▁ble	-12587
:0.76	-12588
▁infringement	-12589
LA	-12590
49"	-12591
ZWJj	-12592
XzgtMS	-12593
▁barrels	-12594
MzMwYTMwZjBm	-12595
441	-12596
Retired	-12597
25-	-12598
:6.2	-12599
▁him	-12600
52044</	-12601
Country	-12602
MGZjOWY	-12603
▁securiti	-12604
-76	-12605
085	-12606
26_	-12607
MjZm	-12608
ZTlh	-12609
oung	-12610
▁threate	-12611
▁Minister	-12612
NlYzphYzdmM	-12613
NzBh	-12614
yNzQ	-12615
ebted	-12616
▁relates	-12617
0-9	-12618
MjFi	-12619
JjNWM	-12620
siles	-12621
Control	-12622
NTkyOWM	-12623
YzMyYzVj	-12624
004	-12625
-131	-12626
▁signed	-12627
▁becomes	-12628
20181231-	-12629
Computation	-12630
YjQzMzBhMzBm	-12631
232	-12632
Nzdi	-12633
ZGFj	-12634
yNjU	-12635
harma	-12636
jOmViY	-12637
YjdmOTk	-12638
20211031"	-12639
TM	-12640
-63	-12641
00-	-12642
YWJh	-12643
YjNm	-12644
▁get	-12645
MGZmY	-12646
ZTNjNGM	-12647
Geographic	-12648
303	-12649
MjYy	-12650
NDZi	-12651
ZGIx	-12652
YTIyY	-12653
MWIyYjc	-12654
interest	-12655
:100%">15	-12656
NzdhYzNhNzllL	-12657
">0001652044</	-12658
ccf	-12659
MGMz	-12660
▁LLP	-12661
OTdlL	-12662
NWJkNF	-12663
NzMyODU	-12664
ZmMxNTg	-12665
NjMzJjNWM	-12666
▁Employee	-12667
MTYw	-12668
jOmNl	-12669
stone	-12670
▁makes	-12671
xLTcyMTQ	-12672
rim	-12673
udy	-12674
Mjky	-12675
ODNi	-12676
OTky	-12677
OTlm	-12678
onstr	-12679
UzYzRj	-12680
NDdiNjM	-12681
ODNhMjJj	-12682
YjcwMjEz	-12683
YmNiOTFi	-12684
▁projections	-12685
▁qualitative	-12686
34-	-12687
-28"	-12688
Nzdm	-12689
Zjhi	-12690
▁engage	-12691
ZTIyMjFk	-12692
Sy	-12693
-79	-12694
-134	-12695
NDdk	-12696
OTYz	-12697
YTlm	-12698
MDdhNWE	-12699
YTVhNGQ	-12700
NlYzpjYzMyYzVj	-12701
OTZm	-12702
MjIyMWQ	-12703
ebtedness	-12704
▁Raytheon	-12705
jOmNjMzJjNWM	-12706
▁Palestinian	-12707
pi	-12708
22-	-12709
YWNh	-12710
YzUw	-12711
Yzhi	-12712
Americ	-12713
MzgzYTIyY	-12714
:23	-12715
YTFm	-12716
▁ASC	-12717
▁category	-12718
ODNhMjJjZTNjNGM	-12719
668	-12720
89-	-12721
31%;	-12722
▁Wik	-12723
▁mes	-12724
20170	-12725
2991;	-12726
MDIxMzk	-12727
NkNWJkNF	-12728
▁discretion	-12729
YjcwMjEzOTdlL	-12730
66-	-12731
841	-12732
dff	-12733
NzYz	-12734
▁">$</	-12735
▁bring	-12736
▁thereto	-12737
YmNiOTFiMmI	-12738
895	-12739
:#002991;	-12740
jOmNlMjIyMWQ	-12741
ZTIyMjFkNDdiNjM	-12742
15-	-12743
Mzdi	-12744
ODdh	-12745
▁summary	-12746
">00015597	-12747
UzYzRjNmZj	-12748
...	-12749
24-	-12750
YTMz	-12751
▁7,	-12752
OTVk	-12753
YjBm	-12754
YzBi	-12755
ZWYx	-12756
;">$<	-12757
▁198	-12758
▁;</	-12759
▁bat	-12760
eding	-12761
▁Finance	-12762
25_	-12763
cad	-12764
:16.	-12765
YTEw	-12766
arrow	-12767
▁Apple	-12768
▁Model	-12769
▁filing	-12770
▁bomb	-12771
▁shor	-12772
FixedIncome	-12773
Mjgz	-12774
OGUz	-12775
specified	-12776
▁operates	-12777
">0001559720</	-12778
/16	-12779
Zjli	-12780
▁Gas	-12781
▁managing	-12782
EvZnJhZzpm	-12783
820	-12784
:7.8	-12785
MThj	-12786
▁Price	-12787
▁struct	-12788
▁commitment	-12789
UzYzRjNmZjMTU	-12790
cea	-12791
NDBi	-12792
20210129"	-12793
>2017-01-01</	-12794
056	-12795
354	-12796
926	-12797
ZTdh	-12798
airman	-12799
97"	-12800
MzVh	-12801
goog	-12802
yNDQ	-12803
▁note	-12804
XzQtNC	-12805
URITIES	-12806
raphics	-12807
MWNh	-12808
▁sum	-12809
:31.5	-12810
▁argin	-12811
11-	-12812
YmMy	-12813
esla	-12814
:1.15;	-12815
▁2016.	-12816
598	-12817
agre	-12818
icit	-12819
NWQz	-12820
733	-12821
ZWZl	-12822
▁gin	-12823
">1,9	-12824
YjAw	-12825
▁Out	-12826
▁release	-12827
▁inability	-12828
193	-12829
MTBl	-12830
▁sour	-12831
IL	-12832
795	-12833
YjAy	-12834
▁royalty	-12835
▁governance	-12836
ots	-12837
MWVl	-12838
NDNk	-12839
NjZl	-12840
▁2010	-12841
acteri	-12842
28_	-12843
585	-12844
▁ba	-12845
NWIy	-12846
▁ver	-12847
▁ISIS	-12848
▁mile	-12849
393	-12850
-117	-12851
MGNj	-12852
:-0.4	-12853
ressed	-12854
▁diverse	-12855
ye	-12856
471	-12857
842	-12858
idf	-12859
YWQz	-12860
▁forms	-12861
Special	-12862
">28	-12863
MTEw	-12864
NzAx	-12865
YWRl	-12866
YjZl	-12867
Yjdj	-12868
NDYw	-12869
ZWVk	-12870
▁rgin	-12871
▁Years	-12872
▁#003087;	-12873
ComputationOf	-12874
ZkN	-12875
fae	-12876
MWQz	-12877
YzRl	-12878
NmNlY	-12879
▁Brit	-12880
hitney	-12881
:1.19%;	-12882
ZGFm	-12883
ZTlk	-12884
forming	-12885
▁pattern	-12886
xMjQvZnJhZzo	-12887
13-	-12888
534	-12889
="10	-12890
&#160;3,	-12891
▁collection	-12892
737	-12893
73%;	-12894
Mzdm	-12895
YTUw	-12896
▁Chr	-12897
alize	-12898
PayPal	-12899
▁interchange	-12900
tra	-12901
YmEz	-12902
ZjRmY	-12903
▁carbon	-12904
ximately	-12905
▁immaterial	-12906
:95	-12907
NzZi	-12908
YmFm	-12909
▁2007	-12910
▁2020.</	-12911
GovernmentMember	-12912
35-	-12913
rem	-12914
OGJh	-12915
ZDAx	-12916
erim	-12917
▁2.9	-12918
3">2,	-12919
Offset	-12920
ZmYzAz	-12921
ZmMwMzQ	-12922
yMDIvZnJhZzo	-12923
143	-12924
653	-12925
666	-12926
999	-12927
ldi	-12928
NzIz	-12929
▁DIS	-12930
versity	-12931
▁tables	-12932
064	-12933
MzYx	-12934
ODBk	-12935
raph	-12936
▁PCAOB	-12937
.&#8221;	-12938
054	-12939
512	-12940
587	-12941
MTgw	-12942
YmIz	-12943
3/0000	-12944
Differ	-12945
YzAwNDQ	-12946
Beginning	-12947
718	-12948
YTVl	-12949
YTkz	-12950
YmRh	-12951
erce	-12952
olice	-12953
NDRkNzA	-12954
jOmZmYzAz	-12955
NetUnrealized	-12956
">39	-12957
NDRjMDA	-12958
ZDcwODAz	-12959
ume	-12960
MDhl	-12961
MTdk	-12962
NGJiOV	-12963
Agencies	-12964
▁carried	-12965
xMjcvZnJhZzo	-12966
452	-12967
ZjEx	-12968
▁furn	-12969
:100%">9	-12970
="12"></	-12971
reg	-12972
35%;	-12973
NWZh	-12974
pite	-12975
sight	-12976
ubtful	-12977
▁Venez	-12978
aturing	-12979
▁trials	-12980
▁convertible	-12981
Down	-12982
lins	-12983
▁calls	-12984
▁2014</	-12985
AssetsValuation	-12986
OGJj	-12987
YmQz	-12988
▁ACC	-12989
▁Cre	-12990
▁Char	-12991
Assess	-12992
NWQwZDg	-12993
Improvements	-12994
xNjAvZnJhZzo	-12995
NjUx	-12996
zens	-12997
Third	-12998
2018110	-12999
NzVkMGQ	-13000
01_2020_	-13001
▁largely	-13002
Thereafter	-13003
Significant	-13004
▁Acquisition	-13005
▁indebtedness	-13006
jOmZmYzAzNDRjMDA	-13007
▁Es	-13008
MDBm	-13009
OTVl	-13010
YWRj	-13011
▁feet	-13012
Annual	-13013
versal	-13014
▁occurred	-13015
0%	-13016
688	-13017
ull	-13018
Land	-13019
NGEy	-13020
▁dispos	-13021
ears	-13022
="1">	-13023
xLTEz	-13024
NlYzpmZmMwMzQ	-13025
14-	-13026
992	-13027
-112	-13028
▁18,	-13029
▁Ther	-13030
RhNDBl	-13031
AndServicesSold	-13032
26%;	-13033
MDhm	-13034
MTgy	-13035
ZDBh	-13036
&#848	-13037
afety	-13038
parel	-13039
▁code	-13040
ritical	-13041
Interests	-13042
▁expensed	-13043
ReservesBalance	-13044
▁Car	-13045
ondon	-13046
▁safe	-13047
:1.98%;	-13048
>2021-10-31</	-13049
ZDcwODAzNzVkMGQ	-13050
098	-13051
696	-13052
Mzkx	-13053
MmRlN	-13054
false	-13055
▁request	-13056
;">2020</	-13057
MTVh	-13058
NDMw	-13059
NmYw	-13060
YmRj	-13061
prem	-13062
▁host	-13063
▁ratio	-13064
="100%">	-13065
▁patients	-13066
995	-13067
NDkx	-13068
YWMx	-13069
ZmIy	-13070
yMzg	-13071
ZjUwL	-13072
ZmZjYzBk	-13073
20230101"	-13074
785	-13075
84-	-13076
939	-13077
NTIz	-13078
YzUy	-13079
ZjBj	-13080
ZmFm	-13081
jOjEw	-13082
ODRlNTQx	-13083
PUs	-13084
▁21	-13085
MGIx	-13086
NTBl	-13087
OGFj	-13088
▁facts	-13089
YmVjODM	-13090
▁limits	-13091
▁disrupt	-13092
mt	-13093
▁Abo	-13094
▁buy	-13095
jOjhj	-13096
MjQyMV	-13097
NDFmNTMy	-13098
YTJkZTdj	-13099
YjVkNzRh	-13100
729	-13101
819	-13102
OWUw	-13103
Yzcy	-13104
MwZGI	-13105
ZWNlOV	-13106
MGYzYjU	-13107
MmFkNzMx	-13108
ZjQwZjNi	-13109
YzVhMmRlN	-13110
▁McDonald	-13111
PlansAdjustment	-13112
013	-13113
cfb	-13114
▁60	-13115
NWVl	-13116
NDIxL	-13117
YTJhZDcz	-13118
MiddleEast	-13119
▁candidates	-13120
NGYw	-13121
NTdi	-13122
ODVj	-13123
ZDBi	-13124
UzZDQ	-13125
▁2025.	-13126
YjkzODQ	-13127
ustained	-13128
ReportableLegal	-13129
615	-13130
cho	-13131
MjIx	-13132
MjNk	-13133
MmIw	-13134
NjVi	-13135
NDFhN	-13136
-20230	-13137
ZTVjMjVi	-13138
▁aspects	-13139
jOjEwZmZjYzBk	-13140
▁footnoteRole	-13141
Ox	-13142
86-	-13143
▁By	-13144
Care	-13145
:0.73%;	-13146
NWRlOThiOTA	-13147
ODRlNTQxZjUz	-13148
281	-13149
765	-13150
1030	-13151
water	-13152
NzdkNmNlY	-13153
▁beverages	-13154
MmFkNzMxZjUwL	-13155
321	-13156
709	-13157
ZDZjZWNlOV	-13158
ZjQwZjNiNTg	-13159
GD	-13160
NmZh	-13161
ZTFk	-13162
:85%;	-13163
YjFiZWM	-13164
ZDMwZGE	-13165
▁derived	-13166
NDFmNTMyNDIxL	-13167
089	-13168
44"	-13169
590	-13170
XzYtMi	-13171
NlYzoxMGZmY	-13172
OperatingLoss	-13173
jOjhjZTVjMjVi	-13174
358	-13175
_27	-13176
">11	-13177
0149	-13178
▁ille	-13179
▁issuer	-13180
NWIxYmVjODM	-13181
YTJhZDczMWY	-13182
45"	-13183
954	-13184
ANGE	-13185
ZDhk	-13186
:0.033	-13187
Hedges	-13188
fei	-13189
MWRm	-13190
16%;">	-13191
YmQzMG	-13192
NThlNGY	-13193
NzgxYWI	-13194
▁internet	-13195
▁violations	-13196
NhMmFkNzMxZjUwL	-13197
-03	-13198
OWUy	-13199
▁(2)	-13200
0000;	-13201
▁surve	-13202
ZmNhYTg	-13203
▁written	-13204
▁feedstock	-13205
▁processors	-13206
_34	-13207
ZDFi	-13208
▁nor	-13209
▁half	-13210
August	-13211
FhODcy	-13212
">(3)</	-13213
▁Currency	-13214
Supplemental	-13215
697	-13216
▁0"	-13217
YzEy	-13218
▁24,	-13219
MGUxL	-13220
reland	-13221
jOjhjZTVjMjViOTM	-13222
▁indemnification	-13223
008	-13224
146	-13225
Den	-13226
ieb	-13227
YWJl	-13228
:40.5	-13229
▁deal	-13230
jOmVmNzgxYWI	-13231
xMDAvZnJhZzo	-13232
017	-13233
332	-13234
676	-13235
RhNDBlMV	-13236
▁conform	-13237
▁reimburs	-13238
MWFiNThlNGY	-13239
ZGRiZDMwZGE	-13240
778	-13241
▁ur	-13242
OGRm	-13243
ZmIz	-13244
zNDY	-13245
20200201-	-13246
ReceivableNet	-13247
MTIx	-13248
NzNi	-13249
OGNk	-13250
OTdk	-13251
olly	-13252
AndNet	-13253
▁After	-13254
▁inquir	-13255
:8.42%;">	-13256
AndCapital	-13257
OTBm	-13258
▁proc	-13259
NlYzplZjc	-13260
▁vaccines	-13261
MmRkYmQzMG	-13262
867	-13263
MWNj	-13264
ZGEy	-13265
ZGQw	-13266
▁serve	-13267
▁maintained	-13268
422	-13269
648	-13270
OGIw	-13271
OGZh	-13272
ZTFi	-13273
quarter	-13274
ReconcilingItem	-13275
MDJh	-13276
imit	-13277
▁she	-13278
500</	-13279
:2.8%;	-13280
Australia	-13281
YWNk	-13282
YmEx	-13283
▁meeting	-13284
▁supplies	-13285
AndRetired	-13286
:#2	-13287
Fin	-13288
ecc	-13289
price	-13290
255	-13291
marg	-13292
ington	-13293
▁threat	-13294
975	-13295
NjNm	-13296
YzNi	-13297
>)	-13298
OWEwNF	-13299
▁Human	-13300
942	-13301
MTNm	-13302
NjgxNzU	-13303
:4.533%;	-13304
LitigationCase	-13305
MGNk	-13306
Mzdj	-13307
▁spe	-13308
lence	-13309
:100%">&#	-13310
▁pipeline	-13311
▁divestitures	-13312
420	-13313
Bond	-13314
Njhk	-13315
ZTIz	-13316
ZTdl	-13317
▁22,	-13318
etter	-13319
NTVmZmI	-13320
NzljMjQ	-13321
xLTEtNjQw	-13322
357	-13323
ANT	-13324
OTRhNjc	-13325
OWYwZDY	-13326
MonthsOr	-13327
Transfer	-13328
AtFederal	-13329
▁complexity	-13330
,</	-13331
540	-13332
67"	-13333
978	-13334
ibe	-13335
ains	-13336
:0.33%;	-13337
NzlmMGQ	-13338
106	-13339
="11	-13340
Mjdk	-13341
MzJk	-13342
NjVk	-13343
ZjFi	-13344
east	-13345
:11.5	-13346
▁taking	-13347
BenefitPlansFor	-13348
262	-13349
ERAT	-13350
MjJl	-13351
MmZj	-13352
NDVj	-13353
NjUz	-13354
ZGUz	-13355
ZTFj	-13356
ZWIw	-13357
:1.12%;	-13358
bee	-13359
11%;	-13360
MGRj	-13361
ZTdk	-13362
Money	-13363
Annuity	-13364
Reported	-13365
GreaterThan	-13366
▁consequences	-13367
PlanNetPeriodic	-13368
Njdl	-13369
▁#16	-13370
imals	-13371
MTItMS	-13372
▁unless	-13373
ZmZiOWEwNF	-13374
NlYzoxNzlmMGQ	-13375
694	-13376
NjRl	-13377
ZDdl	-13378
▁ber	-13379
▁remains	-13380
SalesRevenueNet	-13381
RecognitionValue	-13382
539	-13383
;">)	-13384
MGJl	-13385
MWEy	-13386
feited	-13387
▁Lockheed	-13388
▁rder	-13389
Borrowings	-13390
▁technological	-13391
018	-13392
856	-13393
ZTEz	-13394
widt	-13395
Mutual	-13396
▁incident	-13397
094	-13398
COM	-13399
Mjdm	-13400
▁role	-13401
">12</	-13402
PercentageOf	-13403
OtherNoncurrent	-13404
="_	-13405
men	-13406
Expos	-13407
▁subj	-13408
TaxBenefit	-13409
▁obtaining	-13410
OfUn	-13411
ZThm	-13412
▁costly	-13413
ZlL	-13414
MDAw	-13415
ZDUz	-13416
">1,2	-13417
▁2009	-13418
:100%">$	-13419
▁ordinary	-13420
;">%	-13421
OWZh	-13422
▁heav	-13423
:114%;	-13424
MjFj	-13425
lands	-13426
▁activ	-13427
9-8	-13428
MGVh	-13429
NzVm	-13430
OGQx	-13431
sile	-13432
:-7.2	-13433
;">11	-13434
▁expir	-13435
LeaseCost	-13436
▁amendments	-13437
▁manufactured	-13438
011	-13439
▁48	-13440
NWRi	-13441
▁shown	-13442
Individual	-13443
_29	-13444
▁31</	-13445
dr	-13446
MjVm	-13447
▁led	-13448
▁idth	-13449
▁daily	-13450
▁authority	-13451
602	-13452
NmUw	-13453
ZjYw	-13454
hoto	-13455
▁compa	-13456
074	-13457
930	-13458
NjYz	-13459
▁whole	-13460
>2022-10-30</	-13461
>2024-12-28</	-13462
MjJh	-13463
NzAz	-13464
">16,	-13465
="1"><	-13466
ranties	-13467
Upstream	-13468
GY	-13469
:3.9	-13470
▁Roma	-13471
919	-13472
OWJlMDJk	-13473
491	-13474
617	-13475
MTJm	-13476
MTlk	-13477
MmUx	-13478
NGFl	-13479
ZTEw	-13480
YmUwMmQ	-13481
specific	-13482
381	-13483
69"	-13484
LTEz	-13485
OWFl	-13486
YzNm	-13487
ZDkw	-13488
NGRlL	-13489
NTRkZV	-13490
NGJmOTA	-13491
ZjRjZjVh	-13492
937	-13493
-136	-13494
82%;	-13495
YWNl	-13496
▁seasonal	-13497
▁oversight	-13498
▁royalties	-13499
▁Afghanistan	-13500
ZTIx	-13501
▁Expen	-13502
NjBiNDYy	-13503
jOjUwNWQ	-13504
▁Summary	-13505
MDhh	-13506
▁few	-13507
ening	-13508
▁Conting	-13509
▁demonstr	-13510
▁remeasurement	-13511
NmRi	-13512
YTZl	-13513
ZWMw	-13514
xLTEtMTcx	-13515
LTEzLTEtMS	-13516
OWJlMDJkNmY	-13517
NTdm	-13518
OWNk	-13519
ZjJh	-13520
▁Not	-13521
▁aim	-13522
InvestmentIncome	-13523
):	-13524
MzJi	-13525
YjEx	-13526
▁light	-13527
▁misstate	-13528
Zjlj	-13529
▁Iss	-13530
▁plants	-13531
▁Islamic	-13532
▁improved	-13533
▁covenants	-13534
xMzAvZnJhZzo	-13535
MGRl	-13536
▁give	-13537
ancing	-13538
ZmUzYzM	-13539
service	-13540
YTRiZjkw	-13541
istration	-13542
ZjRjZjVhNGJmOTA	-13543
ZDJj	-13544
Direct	-13545
9746;</	-13546
:100%">%	-13547
:100%">20	-13548
xNTQvZnJhZzo	-13549
▁subscription	-13550
cee	-13551
:-36	-13552
YmRk	-13553
NjdmZV	-13554
asters	-13555
untary	-13556
30%"></	-13557
:5%;"></	-13558
20191001-	-13559
▁modified	-13560
yODAvZnJhZzo	-13561
NjBiNDYyNTRkZV	-13562
LeaseObligations	-13563
NTJm	-13564
NkZjNm	-13565
ZTNjMzQ	-13566
MDVkOWJlMDJkNmY	-13567
avi	-13568
EMEA	-13569
MjAx	-13570
Nzgy	-13571
yNTM	-13572
▁2.2	-13573
pletion	-13574
MmYxNjdmZV	-13575
▁Department	-13576
456	-13577
MTVi	-13578
Refer	-13579
ready	-13580
:100%">3.	-13581
ZGYzZmUzYzM	-13582
078	-13583
457	-13584
:90	-13585
iba	-13586
NGVj	-13587
NzZl	-13588
yNzc	-13589
▁abs	-13590
XzgtMy	-13591
Acceler	-13592
YTZiMGE	-13593
▁prison	-13594
20191104-	-13595
RY	-13596
:61	-13597
Zjkz	-13598
:#007	-13599
MyZjE	-13600
jOjdhN	-13601
Mjgx	-13602
ZGYw	-13603
ZWFj	-13604
▁city	-13605
ingled	-13606
YjBhNTdj	-13607
NkZjNmZTNjMzQ	-13608
YTdjZGYzZmUzYzM	-13609
98"	-13610
YWVl	-13611
ZGQz	-13612
▁And	-13613
▁FDA	-13614
▁acquir	-13615
NDhl	-13616
ZGEx	-13617
▁age	-13618
&#160;26,	-13619
_12_31_2019_	-13620
*&#160;&#160;	-13621
00%	-13622
4-8	-13623
203"	-13624
MDgx	-13625
vals	-13626
▁Experi	-13627
▁having	-13628
20200630"	-13629
▁prospects	-13630
Beneficiary	-13631
▁preferences	-13632
ODkw	-13633
XzIx	-13634
NzFhOD	-13635
Warranty	-13636
:#333333;"><	-13637
8050	-13638
YTUx	-13639
.98%;	-13640
202008	-13641
FhNjZl	-13642
XzItMi	-13643
:13%;"></	-13644
YTYy	-13645
YTZk	-13646
YWVk	-13647
ZjVl	-13648
ourn	-13649
Material	-13650
751	-13651
:66	-13652
▁dth	-13653
Pfizer	-13654
341	-13655
77-	-13656
863	-13657
gement	-13658
▁scheduled	-13659
236	-13660
cyd	-13661
:2.1	-13662
NzUx	-13663
ZWYy	-13664
▁reve	-13665
Determin	-13666
▁Purchase	-13667
▁Reference	-13668
▁ExxonMobil	-13669
797	-13670
▁Or	-13671
ZmYw	-13672
:1.04%;	-13673
Estimate	-13674
▁election	-13675
Corporation	-13676
YWJsZXJhbmdlOmEx	-13677
_37	-13678
12">	-13679
MWJm	-13680
MmEy	-13681
NjFk	-13682
YzZm	-13683
▁EQU	-13684
27419</	-13685
Secured	-13686
▁travel	-13687
▁sustained	-13688
ually	-13689
▁400;	-13690
xLTEtNjQwODM	-13691
▁MD	-13692
MzNk	-13693
Nzhh	-13694
22%;">	-13695
Termin	-13696
NGJhYTY	-13697
▁exists	-13698
▁produced	-13699
Environmental	-13700
ief	-13701
Njlj	-13702
Yjgx	-13703
▁mach	-13704
906	-13705
▁Aff	-13706
▁esp	-13707
tored	-13708
▁Link	-13709
▁details	-13710
780	-13711
YTgy	-13712
ZGIy	-13713
▁proble	-13714
adjusted	-13715
▁recently	-13716
.&#8221;</	-13717
yl	-13718
579	-13719
JkZjg	-13720
olling	-13721
aluesOf	-13722
Curtailments	-13723
ju	-13724
39-	-13725
472	-13726
_49	-13727
▁11,	-13728
▁chip	-13729
HeldTo	-13730
ODIx	-13731
ZTNm	-13732
ZmFk	-13733
roll	-13734
jOjIx	-13735
NzFhODFi	-13736
XzMz	-13737
YzFi	-13738
▁14,	-13739
▁EBIT	-13740
prises	-13741
="8"></	-13742
YTgxYjZh	-13743
▁previous	-13744
">0000027419</	-13745
38,	-13746
YmVkL	-13747
jOmFkM	-13748
▁recoverable	-13749
NiNzQx	-13750
▁:400;	-13751
OTFmYjk	-13752
YmZhYjY	-13753
▁schedule	-13754
▁knowledge	-13755
108	-13756
162	-13757
ZTEy	-13758
depend	-13759
▁Trust	-13760
MTVlMTI	-13761
▁Facility	-13762
▁transform	-13763
xLTEtMTcxMTI	-13764
▁Certificate	-13765
&#160;&#8212;	-13766
-06	-13767
NjFi	-13768
uela	-13769
ZWYzY	-13770
MTkxZmI	-13771
OTZhNmM	-13772
ZDNjYjc	-13773
MWQwZmFh	-13774
▁released	-13775
NzFhODFiNmEx	-13776
xNjkvZnJhZzox	-13777
854	-13778
MTFh	-13779
NjJi	-13780
">10.	-13781
laska	-13782
Dollar	-13783
NWJlZF	-13784
NWUxMjQ	-13785
OGJmYWI	-13786
jOjIxZDBm	-13787
▁characteri	-13788
collectively	-13789
BG	-13790
874	-13791
:#8	-13792
_21	-13793
ars	-13794
OGUw	-13795
YjIx	-13796
;">5</	-13797
2022100	-13798
imarily	-13799
▁diesel	-13800
▁indicated	-13801
NDcxYTgxYjZh	-13802
-78	-13803
873	-13804
-146	-13805
▁17,	-13806
▁XBRL	-13807
:100%">16	-13808
▁disasters	-13809
▁concerning	-13810
yMjMvZnJhZzo	-13811
993	-13812
37%;	-13813
▁stake	-13814
▁wells	-13815
▁shorter	-13816
▁participation	-13817
ki	-13818
7-8	-13819
Yzcx	-13820
▁force	-13821
▁quantitative	-13822
68-	-13823
feb	-13824
42%;	-13825
200</	-13826
XzUtNC	-13827
Forward	-13828
NDUzZWYzY	-13829
jOjIxZDBmYWE	-13830
USTreasuryAnd	-13831
sE	-13832
109	-13833
536	-13834
78"	-13835
:3%;	-13836
YmZi	-13837
adily	-13838
▁banking	-13839
▁Treasury	-13840
NiNzQxNWUxMjQ	-13841
NlYzphZDNjYjc	-13842
LI	-13843
YWJm	-13844
ories	-13845
▁ACCOU	-13846
▁requiring	-13847
NlYzoyMWQwZmFh	-13848
sr	-13849
773	-13850
YjEy	-13851
ZGEz	-13852
ZWJi	-13853
xLTEw	-13854
liament	-13855
▁traded	-13856
FairValuesOf	-13857
637	-13858
MDdm	-13859
borde	-13860
investment	-13861
▁petroleum	-13862
ProgramAxis	-13863
MaturityDate	-13864
043	-13865
442	-13866
MTFm	-13867
MTZl	-13868
▁flo	-13869
;">10-	-13870
▁green	-13871
/829224	-13872
▁exceeds	-13873
▁interim	-13874
▁permitted	-13875
AssetsCurrent	-13876
47-	-13877
79"	-13878
MGIwL	-13879
NDYyNjY	-13880
MDZk	-13881
MGUz	-13882
OTMz	-13883
YTky	-13884
ZDYz	-13885
lhZDZk	-13886
▁intercompany	-13887
Op	-13888
-53	-13889
537	-13890
NIK	-13891
MWQy	-13892
MzZj	-13893
NGEw	-13894
ZDEzNTk	-13895
ZWQxMzU	-13896
▁rebates	-13897
jOjlhZDZk	-13898
066	-13899
NmVh	-13900
>2016	-13901
MTBiMF	-13902
ailure	-13903
NTVj	-13904
ODFl	-13905
ZDYy	-13906
bank	-13907
urred	-13908
Cr	-13909
298	-13910
_0005	-13911
ZDRmZTk	-13912
▁history	-13913
NjgxMGIwL	-13914
xLTEtNDYyNjY	-13915
318	-13916
586	-13917
NIKEB	-13918
▁pace	-13919
▁Benefits	-13920
BanksMember	-13921
535	-13922
ZTlj	-13923
OGViM	-13924
▁Motors	-13925
Divestit	-13926
▁respects	-13927
▁accurately	-13928
RD	-13929
iad	-13930
nes	-13931
MTgz	-13932
="3%"	-13933
▁(201	-13934
▁Commercial	-13935
:38	-13936
MTNk	-13937
laims	-13938
▁listed	-13939
OfCompensation	-13940
526	-13941
766	-13942
_46	-13943
">34	-13944
MWRi	-13945
MmEz	-13946
ZjQx	-13947
MzgyN	-13948
▁shop	-13949
▁learning	-13950
026	-13951
cdd	-13952
rea	-13953
1085	-13954
Mjhi	-13955
▁Dec	-13956
siders	-13957
▁capit	-13958
xLTEtNDM	-13959
jOjlhZDZkZDRmZTk	-13960
19-	-13961
▁imes	-13962
03;"><	-13963
YmFhNjZl	-13964
NIKEBrand	-13965
▁instances	-13966
-23"	-13967
MGFm	-13968
NDAy	-13969
YmJk	-13970
ZDky	-13971
XzYtNS	-13972
Exposure	-13973
▁Earnings	-13974
594	-13975
MTMz	-13976
▁via	-13977
▁crisis	-13978
▁Dollars	-13979
Components	-13980
-407	-13981
MTJj	-13982
0,000	-13983
;">(1	-13984
▁mber	-13985
XzMtNC	-13986
timated	-13987
▁electronic	-13988
ZmMy	-13989
such	-13990
▁extensive	-13991
HeldToMaturity	-13992
YWJsZXJhbmdlOmMy	-13993
nib	-13994
MjZiL	-13995
xLTEtMTI	-13996
▁updates	-13997
cr	-13998
65"	-13999
zNDM	-14000
xLTEtMjM	-14001
▁scho	-14002
▁2015.	-14003
YmFhNjZlZDEzNTk	-14004
951	-14005
tof	-14006
302	-14007
MzL	-14008
ZDdj	-14009
ZWQz	-14010
▁sal	-14011
fffff	-14012
rowth	-14013
NjAwYzY	-14014
allocated	-14015
Nine	-14016
▁brok	-14017
ournal	-14018
MDBjNjQ	-14019
▁Millions	-14020
20211225"><	-14021
sF	-14022
604	-14023
641	-14024
852	-14025
▁lid	-14026
MjdiNj	-14027
▁("	-14028
▁Op	-14029
-157	-14030
▁9%;	-14031
NTAwOGI	-14032
-11-02</	-14033
▁readily	-14034
:0.76%;">	-14035
:100%">9,	-14036
Wholesale	-14037
.1&#160;</	-14038
▁confidence	-14039
38%;	-14040
ZjMz	-14041
▁10%	-14042
ditor	-14043
ewhere	-14044
▁ember	-14045
▁profits	-14046
20200201"	-14047
StockOption	-14048
cfd	-14049
NTZh	-14050
unds	-14051
▁begin	-14052
ProductMember	-14053
446	-14054
95-	-14055
dfc	-14056
Nzky	-14057
▁Cat	-14058
">17,	-14059
">11</	-14060
MjdiNjlj	-14061
▁rapidly	-14062
492	-14063
MzAz	-14064
NTVl	-14065
chite	-14066
&#8224	-14067
OTFhNj	-14068
▁Putin	-14069
:-12.25	-14070
xLTEtMTg	-14071
NTUwMzgyN	-14072
▁Contingencies	-14073
MTBm	-14074
Zjhl	-14075
junction	-14076
▁arrested	-14077
▁reducing	-14078
>2023-10-29</	-14079
PD	-14080
188	-14081
Mis	-14082
MGJh	-14083
OWRk	-14084
YTVk	-14085
▁2013,	-14086
▁launch	-14087
Secondary	-14088
std	-14089
MzBjM	-14090
">15</	-14091
eronau	-14092
▁industrial	-14093
InsuranceAnnuity	-14094
fef	-14095
MThh	-14096
MmIz	-14097
MmMz	-14098
NmVi	-14099
ador	-14100
▁sug	-14101
:35.5	-14102
▁euro	-14103
▁carry	-14104
▁advances	-14105
▁exclusive	-14106
MjdiNjljNzI	-14107
▁Transactions	-14108
AndNetPayables	-14109
097	-14110
MmFl	-14111
NjBj	-14112
▁Fin	-14113
▁gover	-14114
OurPension	-14115
▁quantities	-14116
aps	-14117
cfa	-14118
MDJi	-14119
_6">	-14120
▁gir	-14121
10416	-14122
Man	-14123
-140	-14124
NWMy	-14125
OTJl	-14126
YWRm	-14127
ODBhN	-14128
▁oman	-14129
1231">	-14130
petition	-14131
▁et	-14132
">27	-14133
MjBk	-14134
NDJk	-14135
NDNj	-14136
XzIxLT	-14137
inition	-14138
-01-28</	-14139
-52	-14140
▁ix	-14141
Mzhj	-14142
zable	-14143
:0;"><	-14144
-01-30</	-14145
▁duration	-14146
▁Extension	-14147
xNzgvZnJhZzo	-14148
▁understanding	-14149
:50.	-14150
MDJj	-14151
▁tra	-14152
ingap	-14153
="6">1,	-14154
▁occurs	-14155
xOTMvZnJhZzo	-14156
MGVi	-14157
ZGNj	-14158
38846	-14159
▁Kore	-14160
▁Tesla	-14161
20200926"	-14162
mo	-14163
478	-14164
507	-14165
▁big	-14166
▁lack	-14167
▁secret	-14168
▁smaller	-14169
Production	-14170
103	-14171
542	-14172
MzVm	-14173
OWJi	-14174
PORT	-14175
▁notional	-14176
▁vulnerabilities	-14177
279	-14178
EvdG	-14179
ZTUw	-14180
▁FASB	-14181
XzktMS	-14182
▁ending	-14183
xLTEtMTY	-14184
432	-14185
796	-14186
NGIy	-14187
222	-14188
Mjhj	-14189
:7.41%;	-14190
▁wholly	-14191
ingapore	-14192
NIKEBrandMember	-14193
YzEw	-14194
▁trust	-14195
5-8	-14196
642	-14197
MzIw	-14198
NWZm	-14199
Longer	-14200
36938846	-14201
:0.533%"></	-14202
>2018-12-30</	-14203
MzNm	-14204
ODFj	-14205
Yzdk	-14206
ZGNh	-14207
abel	-14208
Commitment	-14209
▁Investment	-14210
774	-14211
▁Law	-14212
▁vio	-14213
;">16	-14214
Channel	-14215
▁purpose	-14216
Infrequent	-14217
▁Proceedings	-14218
gaapFairValueBy	-14219
eal	-14220
MzNh	-14221
Zjdh	-14222
▁500	-14223
▁weap	-14224
MDBjNWY	-14225
▁generic	-14226
.0&#160;</	-14227
MzFi	-14228
▁They	-14229
▁quick	-14230
entical	-14231
MmQy	-14232
YzJi	-14233
ZTBi	-14234
uests	-14235
▁reser	-14236
xNDIvZnJhZzo	-14237
MDFiY	-14238
▁Risks	-14239
▁shows	-14240
Unusual	-14241
2026	-14242
Funded	-14243
livery	-14244
▁Texas	-14245
YTdiZGY	-14246
▁breaches	-14247
▁governing	-14248
ourseDebtMember	-14249
857	-14250
Mzlh	-14251
YTAx	-14252
/>202	-14253
MzhiL	-14254
atute	-14255
niques	-14256
ZTgxNzQ	-14257
▁mainly	-14258
▁sharing	-14259
FixedRate	-14260
896	-14261
YzAx	-14262
YTQzNDFhN	-14263
▁failures	-14264
PensionPlan	-14265
033	-14266
901	-14267
Yjgy	-14268
▁els	-14269
;">10,	-14270
▁retained	-14271
087	-14272
NTVk	-14273
None	-14274
OTNl	-14275
Yzhh	-14276
▁7.41	-14277
Noncash	-14278
YzdhMjdj	-14279
016	-14280
67-	-14281
▁cl	-14282
NzIy	-14283
_13_	-14284
Space	-14285
▁conjunction	-14286
_31	-14287
-405	-14288
NTJh	-14289
OTVj	-14290
ZmEx	-14291
▁"></	-14292
▁peri	-14293
▁savings	-14294
MzlkMzhiL	-14295
excluding	-14296
EvZnJhZzpk	-14297
▁elsewhere	-14298
▁Sc	-14299
▁21,	-14300
:2.26	-14301
lihood	-14302
▁London	-14303
:120%">5	-14304
▁2024.</	-14305
▁Pension	-14306
OrInfrequent	-14307
StockOptions	-14308
LP	-14309
ilt	-14310
▁IN	-14311
ENTS	-14312
NGVm	-14313
NTcy	-14314
ZjMw	-14315
ZjNk	-14316
ODIw	-14317
acceler	-14318
ecially	-14319
▁preceding	-14320
▁associates	-14321
dfd	-14322
MmIy	-14323
QwNzE	-14324
itted	-14325
▁dist	-14326
▁soldi	-14327
ationally	-14328
YzdhMjdjYzQ	-14329
▁contributed	-14330
1-3	-14331
MjFh	-14332
NzEx	-14333
ODhj	-14334
ZWQyN	-14335
Americas	-14336
&#160;31,</	-14337
MzQxYTdiZGY	-14338
BenefitsPaid	-14339
782	-14340
icc	-14341
iee	-14342
YzIx	-14343
ZWUz	-14344
▁drugs	-14345
PositionLessThan	-14346
:70	-14347
">31	-14348
-130	-14349
NjIy	-14350
YjNh	-14351
ZTlm	-14352
jOmI	-14353
MzhlL	-14354
▁separately	-14355
▁subsequently	-14356
Free	-14357
Nzlh	-14358
OTFk	-14359
ZjZh	-14360
ZWZkM	-14361
▁Obama	-14362
▁bottlers	-14363
Withholding	-14364
▁immediately	-14365
_55	-14366
MDFj	-14367
MzNi	-14368
▁aap	-14369
IncomeNet	-14370
▁JPMorgan	-14371
952	-14372
ulf	-14373
eadi	-14374
▁16,	-14375
MTFlOWU	-14376
▁Police	-14377
▁Trustee	-14378
NlYzpkMmM	-14379
AgreementMember	-14380
jOmQyYzdhMjdjYzQ	-14381
hf	-14382
69-	-14383
cbe	-14384
-133	-14385
79%;	-14386
:46.	-14387
NmFh	-14388
NmNh	-14389
ZGIz	-14390
:100%"	-14391
VmZDNk	-14392
▁study	-14393
59"	-14394
MTYy	-14395
aker	-14396
free	-14397
▁Loan	-14398
▁constrain	-14399
MDYx	-14400
UwNWE	-14401
eadily	-14402
MDcxMjQ	-14403
MDcxNzM	-14404
NmUxMWU	-14405
▁partnership	-14406
DerivativeNet	-14407
288	-14408
Nzhk	-14409
;">4</	-14410
/000155	-14411
▁Platform	-14412
-00	-14413
731	-14414
YmJj	-14415
3">1,	-14416
NmNTM	-14417
dicine	-14418
▁earth	-14419
▁woman	-14420
▁lending	-14421
MDYzZWZkM	-14422
StartDate	-14423
ODFk	-14424
ZmUw	-14425
▁valu	-14426
▁30.25	-14427
NjkxYTY	-14428
QzMGMzL	-14429
MDVhNTUw	-14430
MzdlMDcxMjQ	-14431
OTFhNjUwNWE	-14432
jOjVkNmUxMWU	-14433
366	-14434
580	-14435
▁ew	-14436
YjMx	-14437
="3"></	-14438
NlYzpiN	-14439
▁disease	-14440
dependence	-14441
ZDZlMTFlOWU	-14442
▁authorization	-14443
565	-14444
dcc	-14445
NmZk	-14446
ZWRi	-14447
-137	-14448
89%;	-14449
▁ACT	-14450
▁mass	-14451
="-2">	-14452
EffectOf	-14453
CONSOLIDATED	-14454
_12_31_2020_	-14455
BM	-14456
-62	-14457
41-	-14458
678	-14459
HER	-14460
flows	-14461
▁rein	-14462
tically	-14463
▁trustee	-14464
▁utilized	-14465
Productive	-14466
▁Automotive	-14467
▁examination	-14468
ENER	-14469
yNjg	-14470
ancer	-14471
&#160;12	-14472
VmZDNkMDcxNzM	-14473
YjNi	-14474
diture	-14475
▁Merger	-14476
▁detect	-14477
▁Taxonomy	-14478
xOTYvZnJhZzo	-14479
NzVhMDYzZWZkM	-14480
nil	-14481
▁Japanese	-14482
AndRelated	-14483
▁attention	-14484
StartDateAxis	-14485
:100%">1&#160;</	-14486
",	-14487
▁cale	-14488
attack	-14489
xexhibit	-14490
95%;	-14491
OTkz	-14492
YWYz	-14493
process	-14494
MDVhNTUwNWNk	-14495
Jo	-14496
MmFh	-14497
YWFk	-14498
ZTYw	-14499
▁$3.	-14500
cally	-14501
▁geop	-14502
chitect	-14503
quality	-14504
xLTEtMTgy	-14505
▁Ownership	-14506
742	-14507
NTS	-14508
NDEx	-14509
NDVh	-14510
OGEz	-14511
Yzll	-14512
▁OEM	-14513
;">17	-14514
jOmNm	-14515
Readily	-14516
="6">-</	-14517
▁2023.</	-14518
RightsMember	-14519
;<	-14520
182	-14521
199	-14522
681	-14523
cfc	-14524
YTJl	-14525
ENERAL	-14526
EwNTQy	-14527
▁names	-14528
▁2022.</	-14529
▁Furthermore	-14530
ta	-14531
:22	-14532
47%;	-14533
:8.7	-14534
NjIw	-14535
101829	-14536
ZTRiZjE	-14537
889	-14538
Mzgx	-14539
NjRm	-14540
ouse	-14541
▁capt	-14542
">20</	-14543
overed	-14544
NlYzpjM	-14545
OWUxNzg	-14546
MmNk	-14547
MmZh	-14548
IwNDQ	-14549
World	-14550
▁sole	-14551
Natural	-14552
gations	-14553
MzZTRiZjE	-14554
MeasuredOn	-14555
NDZl	-14556
37996	-14557
NGUzY	-14558
jOmYx	-14559
NTcxNjU	-14560
ZmVjMmQ	-14561
odities	-14562
▁#160;</	-14563
AutomotiveMember	-14564
MTZi	-14565
YjUw	-14566
ZGYy	-14567
ZWZi	-14568
ODkxL	-14569
YzUzL	-14570
▁Amazon	-14571
▁percei	-14572
▁protests	-14573
▁reviewed	-14574
CapitalizedCosts	-14575
421	-14576
ZDAy	-14577
NjYTI	-14578
▁rise	-14579
▁holds	-14580
ODllMTc	-14581
YzJkNWM	-14582
GoodwillAnd	-14583
OriginatedTwo	-14584
TargetAllocation	-14585
▁%">	-14586
▁scr	-14587
▁explo	-14588
▁unique	-14589
Accelerated	-14590
YmYxNTcxNjU	-14591
jOmMzZTRiZjE	-14592
▁sustainability	-14593
MzUw	-14594
ZTZl	-14595
VkMjdh	-14596
▁logis	-14597
ZTAxNzQ	-14598
xLTEtMjQ	-14599
▁2021.</	-14600
▁Ireland	-14601
:9.98%;">	-14602
ZTNjYzUzL	-14603
xLTEtNDgw	-14604
323	-14605
756	-14606
:40.	-14607
NzNh	-14608
YTNm	-14609
ZDFl	-14610
:76.5	-14611
ainer	-14612
ZDMzNzg	-14613
ishment	-14614
NjQzMmQz	-14615
YzhkZDRi	-14616
jOmYxZThj	-14617
primarily	-14618
jOmNmZmVjMmQ	-14619
xLTEtMTgyMzUx	-14620
▁communicated	-14621
UW	-14622
YmYz	-14623
NGViY	-14624
OGRkNG	-14625
▁track	-14626
NTRiNTRh	-14627
xLTEtMTU	-14628
▁refining	-14629
NlYzpjZmZl	-14630
OTIwODllMTc	-14631
SmallAgriculture	-14632
ZTgz	-14633
▁3</	-14634
MmMxZTQ	-14635
NzVlMDE	-14636
▁likelihood	-14637
FT	-14638
48-	-14639
_40	-14640
MWRj	-14641
NTll	-14642
▁withd	-14643
Holding	-14644
NDZkMzM	-14645
EwNTQyNzY	-14646
VkMjdhMDU	-14647
YzhkZDRiMDQ	-14648
">29	-14649
MDBk	-14650
▁Wal	-14651
▁pas	-14652
OGFlOTI	-14653
NlYzplNjQzMmQz	-14654
NotesPayableTo	-14655
MWVm	-14656
▁Mal	-14657
NTNlOF	-14658
▁Arabia	-14659
NDMyZDMz	-14660
NzRlYmNm	-14661
:100%">17	-14662
▁expanded	-14663
OGRkNGIwNDQ	-14664
OtherAdjustments	-14665
:2.9	-14666
NTZm	-14667
▁olid	-14668
▁confidential	-14669
NDBh	-14670
NmEw	-14671
amas	-14672
aten	-14673
="-7"	-14674
xLTIx	-14675
MzJjMWU	-14676
▁effort	-14677
▁revised	-14678
NlYzpmMWU	-14679
▁Advanced	-14680
▁Protection	-14681
MonthsOrLonger	-14682
MWVi	-14683
▁wid	-14684
YWYxZTg	-14685
CAL	-14686
NDUw	-14687
YjYz	-14688
ikes	-14689
:120%">$	-14690
ectivity	-14691
EK	-14692
138	-14693
223	-14694
:46	-14695
Ten	-14696
▁28	-14697
128-	-14698
NGFk	-14699
▁Home	-14700
Private	-14701
MDEwMWJj	-14702
ZDQyODVi	-14703
▁enables	-14704
Expiration	-14705
ZDdhOGFlOTI	-14706
ProductionAnd	-14707
46%;	-14708
MGVj	-14709
MThl	-14710
NDMyZDMzMmMxZTQ	-14711
FiscalYearBefore	-14712
ban	-14713
Enum	-14714
cons	-14715
ZkMjc	-14716
▁AOCI	-14717
▁Each	-14718
XzctNS	-14719
NTRiNTRhNzVlMDE	-14720
ThreeYearsBefore	-14721
096	-14722
463	-14723
NzMw	-14724
▁Found	-14725
YjZiNGFm	-14726
MDEwMWJjL	-14727
NlYzplZjVl	-14728
ZDQyODViNmI	-14729
▁especially	-14730
712	-14731
879	-14732
▁PC	-14733
ZDZm	-14734
-2022	-14735
OGJkMWU	-14736
▁vendor	-14737
▁professional	-14738
-489	-14739
YWZi	-14740
ZDdi	-14741
YjdhNzI	-14742
▁minister	-14743
xLTEtNDgwMjQ	-14744
0-8	-14745
821	-14746
XzItNS	-14747
YmQxZTg	-14748
riptions	-14749
▁Equipment	-14750
2030	-14751
NTgy	-14752
NThj	-14753
jOjZkMjc	-14754
▁conflict	-14755
266	-14756
980	-14757
▁list	-14758
XzctMi	-14759
isting	-14760
▁guests	-14761
jOmVmNWVm	-14762
ufacturing	-14763
▁Disclosure	-14764
NlYzplZjVlZmI	-14765
029	-14766
MDcw	-14767
MzQy	-14768
ZWIzY	-14769
nibus	-14770
QzZDAw	-14771
NTFhNjU	-14772
YTcyOGQ	-14773
▁sensitive	-14774
ODQyOGJkMWU	-14775
YjZiNGFmMWU	-14776
▁consolidation	-14777
372	-14778
Rus	-14779
:7.3	-14780
NTFj	-14781
ZTAy	-14782
03"><	-14783
dated	-14784
Hedged	-14785
YzVmNl	-14786
▁trend	-14787
MjRkNDc	-14788
MzRiZmM	-14789
MzUxYTY	-14790
recision	-14791
ODAxMDFiY	-14792
Enumeration	-14793
war	-14794
9642;</	-14795
MDdlZjU	-14796
MjkzNGJm	-14797
▁Britain	-14798
Ee	-14799
>201	-14800
ZjBi	-14801
▁wor	-14802
IxNDk	-14803
GENERAL	-14804
NjMyOTI	-14805
20220128"	-14806
/24	-14807
ZWIx	-14808
▁uns	-14809
▁means	-14810
:100%">11,	-14811
ZDNkMDBjNWY	-14812
▁membership	-14813
jOmVmNWVmYjdhNzI	-14814
038	-14815
513	-14816
530	-14817
YTBl	-14818
ZThl	-14819
ZjBk	-14820
▁$1,	-14821
ptive	-14822
▁kill	-14823
▁earli	-14824
▁Rights	-14825
▁troops	-14826
20210130"	-14827
YzQzNTFhNjU	-14828
ProductiveAssets	-14829
466	-14830
54"	-14831
607	-14832
exh	-14833
ODcz	-14834
">0</	-14835
▁contains	-14836
ValueShareBased	-14837
NzNm	-14838
ZjYy	-14839
ZmUy	-14840
type	-14841
▁Euro	-14842
;">6</	-14843
veries	-14844
▁Latin	-14845
CustomerMember	-14846
178	-14847
451	-14848
570	-14849
959	-14850
Str	-14851
MjZj	-14852
MmNi	-14853
MmNj	-14854
NDUx	-14855
Yzkw	-14856
otbox	-14857
NhMjRkNDc	-14858
▁Americas	-14859
▁enhanced	-14860
▁innovative	-14861
NjAy	-14862
bool	-14863
▁call	-14864
ealand	-14865
▁fuels	-14866
▁achieved	-14867
QzZDAwYzVmNl	-14868
OfCommonStock	-14869
sB	-14870
ZTUy	-14871
ZmJi	-14872
Within	-14873
▁Experience	-14874
ove	-14875
NjNi	-14876
ODli	-14877
YWRk	-14878
known	-14879
▁whose	-14880
ballotbox	-14881
▁submitted	-14882
Advertising	-14883
xNzIvZnJhZzo	-14884
336	-14885
462	-14886
659	-14887
">44	-14888
NGZm	-14889
▁strike	-14890
yNDEvZnJhZzo	-14891
▁fulfillment	-14892
tis	-14893
ZmYx	-14894
ides	-14895
="12%"	-14896
&#8212;(	-14897
="2">$</	-14898
odically	-14899
boolballotbox	-14900
URES	-14901
▁Chase	-14902
▁Muslim	-14903
▁considers	-14904
▁environments	-14905
">30	-14906
NjJl	-14907
First	-14908
▁Safety	-14909
OriginatedFour	-14910
42-	-14911
482	-14912
Cli	-14913
NWVi	-14914
▁Black	-14915
Affiliates	-14916
▁supporting	-14917
ficationAxis	-14918
▁reimbursement	-14919
YWJsZXJhbmdlOmZl	-14920
>(	-14921
MGIz	-14922
ODEw	-14923
ZDBk	-14924
ZDUw	-14925
2724;	-14926
▁scal	-14927
▁identical	-14928
CreditBeforeTax	-14929
TX	-14930
Vehic	-14931
▁debit	-14932
▁voting	-14933
PlanCashAnd	-14934
xLTEtNzIxNDk	-14935
SD	-14936
Um	-14937
65-	-14938
Card	-14939
NGZl	-14940
">18,	-14941
531"><	-14942
▁restaurant	-14943
035	-14944
MjBh	-14945
NDlj	-14946
iling	-14947
▁named	-14948
accelerated	-14949
3">&#8212;</	-14950
267	-14951
Mzll	-14952
YWRh	-14953
:12.5	-14954
▁gaap	-14955
:12.88%;	-14956
▁Because	-14957
▁finished	-14958
/>(	-14959
was	-14960
▁24	-14961
NGZk	-14962
yalty	-14963
unding	-14964
▁tradi	-14965
▁illegal	-14966
ZGJl	-14967
▁13,	-14968
▁bur	-14969
anded	-14970
▁later	-14971
▁fa	-14972
MTFj	-14973
OGYw	-14974
yNTA	-14975
urder	-14976
using	-14977
▁reasons	-14978
FINANCIAL	-14979
NWMx	-14980
YWMy	-14981
▁client	-14982
▁instrument	-14983
MortgageBacked	-14984
82-	-14985
931	-14986
ema	-14987
NmIz	-14988
ZDUy	-14989
▁separation	-14990
EntityAddress	-14991
▁Organizations	-14992
142	-14993
43-	-14994
ODZj	-14995
▁xsi	-14996
White	-14997
ulations	-14998
▁onFraction	-14999
MGEx	-15000
NDFl	-15001
DueIn	-15002
▁60;</	-15003
▁usage	-15004
ashington	-15005
-08	-15006
-51	-15007
-30"	-15008
LTEy	-15009
MTNj	-15010
NWEz	-15011
OTgy	-15012
▁inherit	-15013
7797	-15014
NTIy	-15015
NTlk	-15016
YzVi	-15017
▁ess	-15018
▁chemical	-15019
▁approvals	-15020
ContributionPlan	-15021
40-	-15022
:34	-15023
fbd	-15024
ZDYw	-15025
rest	-15026
▁expose	-15027
▁reform	-15028
▁taxing	-15029
▁update	-15030
:32.233%"></	-15031
▁distributed	-15032
▁withholding	-15033
OrInfrequentItem	-15034
fbe	-15035
MjZk	-15036
ZTkx	-15037
▁Jew	-15038
entists	-15039
▁attempt	-15040
▁floating	-15041
▁prepared	-15042
171	-15043
998	-15044
tery	-15045
▁Cam	-15046
▁Office	-15047
CostsAnd	-15048
:100%">001-	-15049
Ei	-15050
▁ial	-15051
front	-15052
▁rent	-15053
ranted	-15054
ireless	-15055
AssetsNet	-15056
▁decreases	-15057
▁interpretations	-15058
067	-15059
261	-15060
MDFm	-15061
NjJh	-15062
OGEx	-15063
ZmZk	-15064
▁educ	-15065
▁predic	-15066
▁Meeting	-15067
LTEyLTEtMS	-15068
:0.532%"/><	-15069
▁protesters	-15070
CostAndExpense	-15071
IBOR	-15072
▁pressure	-15073
.2&#160;</	-15074
XzEwLTEtMS	-15075
▁ju	-15076
aming	-15077
▁Obligations	-15078
.133	-15079
MjUz	-15080
▁oblig	-15081
ademark	-15082
Incurred	-15083
▁Collins	-15084
▁refined	-15085
NGJl	-15086
ZTcw	-15087
6_7">	-15088
AvailableTo	-15089
▁historically	-15090
YWJsZXJhbmdlOjZl	-15091
068	-15092
99-	-15093
ells	-15094
2016</	-15095
▁herit	-15096
20211203"	-15097
872	-15098
996	-15099
▁tw	-15100
Nzhi	-15101
▁Indian	-15102
novative	-15103
">00011085	-15104
▁Intangible	-15105
NzYw	-15106
body	-15107
MTMtMS	-15108
ditional	-15109
▁leaders	-15110
xLTIwNTAx	-15111
iec	-15112
150;	-15113
MWJh	-15114
Yjgw	-15115
ZjYx	-15116
isti	-15117
ship	-15118
gines	-15119
Declared	-15120
823	-15121
2028	-15122
65%;	-15123
NGRm	-15124
dies	-15125
:1%;"/>	-15126
▁repatr	-15127
ony	-15128
MWFm	-15129
NTEw	-15130
OTUy	-15131
held	-15132
▁Impa	-15133
XzktMy	-15134
Chevron	-15135
">0001108524</	-15136
MDAx	-15137
Njhl	-15138
OTBj	-15139
Zjlk	-15140
▁favor	-15141
20190531"	-15142
IncMember	-15143
">000010416	-15144
>2020-09-27</	-15145
YWJsZXJhbmdlOjVj	-15146
075	-15147
Mjlm	-15148
NjNj	-15149
NzAw	-15150
Yjdk	-15151
Yzkx	-15152
ZDcy	-15153
ZWVm	-15154
▁0;</	-15155
▁behavi	-15156
xLTEtMjU	-15157
:32.34%;">	-15158
;">(2,	-15159
007	-15160
272	-15161
45-	-15162
577	-15163
:-6	-15164
oned	-15165
uOmE	-15166
▁($<	-15167
▁shareholder	-15168
Mo	-15169
60-	-15170
="5	-15171
">49	-15172
15%;	-15173
offs	-15174
ewith	-15175
ospital	-15176
▁5.	-15177
▁Reform	-15178
:0.384%"/><	-15179
MDIw	-15180
ZDJh	-15181
163165	-15182
▁techniques	-15183
▁allegations	-15184
GainLossAfter	-15185
med	-15186
23</	-15187
▁come	-15188
Rating	-15189
:100%">10,	-15190
xMzkvZnJhZzo	-15191
Distributions	-15192
▁communications	-15193
MDAy	-15194
▁basic	-15195
▁exhibit	-15196
Volatility	-15197
">0000104169</	-15198
49-	-15199
:1.3	-15200
MTUz	-15201
ZjIw	-15202
utonom	-15203
TwoPoint	-15204
▁Fraction	-15205
:10.84%;">	-15206
▁terminated	-15207
provedProperties	-15208
024	-15209
▁Vi	-15210
omin	-15211
▁#006	-15212
▁Many	-15213
▁weeks	-15214
▁called	-15215
662	-15216
941	-15217
▁rm	-15218
ZGUy	-15219
▁agent	-15220
▁Moreover	-15221
44-	-15222
Sep	-15223
yNz	-15224
">46	-15225
ZDJl	-15226
eets	-15227
▁much	-15228
:0.54%;	-15229
▁execution	-15230
▁engagement	-15231
▁exploration	-15232
:100%">&#160;	-15233
ForShareBased	-15234
403	-15235
97-	-15236
gaa	-15237
▁Em	-15238
ingu	-15239
▁rit	-15240
arriers	-15241
▁needed	-15242
Deductions	-15243
▁Financing	-15244
_70	-15245
">35	-15246
▁0%">	-15247
abling	-15248
▁warehous	-15249
070	-15250
MWMy	-15251
▁Space	-15252
urrence	-15253
▁secured	-15254
torMember	-15255
▁investee	-15256
VariableRate	-15257
▁ed	-15258
NmQw	-15259
ZTFl	-15260
▁CEO	-15261
65280</	-15262
▁evolve	-15263
01_2017_	-15264
▁contractors	-15265
aaS	-15266
NTBj	-15267
YmNl	-15268
Applic	-15269
▁traffic	-15270
▁methodology	-15271
392	-15272
920	-15273
▁Ri	-15274
gers	-15275
UnitsMember	-15276
_10_30_2017_	-15277
MachineryEnergy	-15278
343	-15279
ners	-15280
OTHER	-15281
;">7</	-15282
▁forced	-15283
ups	-15284
Nzkz	-15285
ZDlk	-15286
ZTcx	-15287
nonFr	-15288
▁10.0	-15289
PlanAmounts	-15290
BusinessMember	-15291
Ue	-15292
431	-15293
iaf	-15294
NjEy	-15295
ZWVj	-15296
eaks	-15297
▁San	-15298
▁want	-15299
opharma	-15300
/1163165	-15301
FinancialMember	-15302
6190	-15303
Yzdj	-15304
ZWJk	-15305
:0.92	-15306
ProjectedBenefit	-15307
62-	-15308
MTVk	-15309
ODYx	-15310
ZWEx	-15311
">14</	-15312
sitivity	-15313
▁expanding	-15314
511	-15315
-31"	-15316
YzBl	-15317
▁LNG	-15318
▁Sim	-15319
;">12,	-15320
▁ction	-15321
:10.983	-15322
▁Narrow	-15323
:100%">19	-15324
FairValueHedge	-15325
▁ow	-15326
-499	-15327
ious	-15328
▁sets	-15329
ration	-15330
&#8224;</	-15331
▁perceived	-15332
353	-15333
-455	-15334
YTZm	-15335
ZTBk	-15336
758</	-15337
which	-15338
▁doing	-15339
▁160;</	-15340
FromAoci	-15341
▁Devices	-15342
20220930"	-15343
AX	-15344
through	-15345
▁raction	-15346
20200601-	-15347
utonomous	-15348
▁according	-15349
▁issuances	-15350
TaxWithholding	-15351
-419	-15352
ruit	-15353
-02-03</	-15354
▁periodically	-15355
591	-15356
osystem	-15357
▁assemb	-15358
▁#000000">	-15359
▁differenti	-15360
▁communities	-15361
">0001065280</	-15362
596	-15363
point	-15364
Without	-15365
onsoring	-15366
771	-15367
sim	-15368
▁Da	-15369
MWRh	-15370
king	-15371
estro	-15372
▁bill	-15373
▁none	-15374
PropertyOr	-15375
km	-15376
-425	-15377
ZDVk	-15378
[...]
